#include "magic_wand_model_data.h"

// We need to keep the data array aligned on some architectures.
#ifdef __has_attribute
#define HAVE_ATTRIBUTE(x) __has_attribute(x)
#else
#define HAVE_ATTRIBUTE(x) 0
#endif
#if HAVE_ATTRIBUTE(aligned) || (defined(__GNUC__) && !defined(__clang__))
#define DATA_ALIGN_ATTRIBUTE __attribute__((aligned(4)))
#else
#define DATA_ALIGN_ATTRIBUTE
#endif

const unsigned char g_magic_wand_model_data[] DATA_ALIGN_ATTRIBUTE = {
  0x1c, 0x00, 0x00, 0x00, 0x54, 0x46, 0x4c, 0x33, 0x14, 0x00, 0x20, 0x00,
  0x04, 0x00, 0x08, 0x00, 0x0c, 0x00, 0x10, 0x00, 0x14, 0x00, 0x00, 0x00,
  0x18, 0x00, 0x1c, 0x00, 0x14, 0x00, 0x00, 0x00, 0x03, 0x00, 0x00, 0x00,
  0x18, 0x00, 0x00, 0x00, 0x2c, 0x00, 0x00, 0x00, 0xd8, 0x00, 0x00, 0x00,
  0x2c, 0x00, 0x00, 0x00, 0x80, 0x00, 0x00, 0x00, 0x78, 0x00, 0x00, 0x00,
  0x05, 0x00, 0x00, 0x00, 0x28, 0x07, 0x00, 0x00, 0x44, 0x06, 0x00, 0x00,
  0xbc, 0x03, 0x00, 0x00, 0xf8, 0x02, 0x00, 0x00, 0xac, 0x01, 0x00, 0x00,
  0x01, 0x00, 0x00, 0x00, 0xd0, 0x00, 0x00, 0x00, 0x14, 0x00, 0x00, 0x00,
  0x98, 0x32, 0x00, 0x00, 0x94, 0x32, 0x00, 0x00, 0x8c, 0x31, 0x00, 0x00,
  0xd8, 0x30, 0x00, 0x00, 0x30, 0x30, 0x00, 0x00, 0xbc, 0x2f, 0x00, 0x00,
  0x50, 0x2f, 0x00, 0x00, 0x00, 0x13, 0x00, 0x00, 0xec, 0x11, 0x00, 0x00,
  0x10, 0x10, 0x00, 0x00, 0xb4, 0x07, 0x00, 0x00, 0x6c, 0x32, 0x00, 0x00,
  0x68, 0x32, 0x00, 0x00, 0x64, 0x32, 0x00, 0x00, 0x60, 0x32, 0x00, 0x00,
  0x5c, 0x32, 0x00, 0x00, 0x58, 0x32, 0x00, 0x00, 0x54, 0x32, 0x00, 0x00,
  0x50, 0x32, 0x00, 0x00, 0x3c, 0x00, 0x00, 0x00, 0x00, 0x00, 0x00, 0x00,
  0x01, 0x00, 0x00, 0x00, 0x0c, 0x00, 0x00, 0x00, 0x08, 0x00, 0x0c, 0x00,
  0x04, 0x00, 0x08, 0x00, 0x08, 0x00, 0x00, 0x00, 0x08, 0x00, 0x00, 0x00,
  0x13, 0x00, 0x00, 0x00, 0x13, 0x00, 0x00, 0x00, 0x6d, 0x69, 0x6e, 0x5f,
  0x72, 0x75, 0x6e, 0x74, 0x69, 0x6d, 0x65, 0x5f, 0x76, 0x65, 0x72, 0x73,
  0x69, 0x6f, 0x6e, 0x00, 0xfa, 0xce, 0xff, 0xff, 0x04, 0x00, 0x00, 0x00,
  0x10, 0x00, 0x00, 0x00, 0x31, 0x2e, 0x35, 0x2e, 0x30, 0x00, 0x00, 0x00,
  0x00, 0x00, 0x00, 0x00, 0x00, 0x00, 0x00, 0x00, 0x0f, 0x00, 0x00, 0x00,
  0x4d, 0x4c, 0x49, 0x52, 0x20, 0x43, 0x6f, 0x6e, 0x76, 0x65, 0x72, 0x74,
  0x65, 0x64, 0x2e, 0x00, 0x00, 0x00, 0x0e, 0x00, 0x18, 0x00, 0x04, 0x00,
  0x08, 0x00, 0x0c, 0x00, 0x10, 0x00, 0x14, 0x00, 0x0e, 0x00, 0x00, 0x00,
  0x14, 0x00, 0x00, 0x00, 0x5c, 0x00, 0x00, 0x00, 0x60, 0x00, 0x00, 0x00,
  0x64, 0x00, 0x00, 0x00, 0x84, 0x00, 0x00, 0x00, 0x12, 0x00, 0x00, 0x00,
  0x58, 0x31, 0x00, 0x00, 0xe8, 0x30, 0x00, 0x00, 0x44, 0x30, 0x00, 0x00,
  0x9c, 0x2f, 0x00, 0x00, 0xf4, 0x2e, 0x00, 0x00, 0x94, 0x2e, 0x00, 0x00,
  0x2c, 0x2e, 0x00, 0x00, 0xd8, 0x11, 0x00, 0x00, 0xbc, 0x10, 0x00, 0x00,
  0xe0, 0x0e, 0x00, 0x00, 0x0c, 0x06, 0x00, 0x00, 0x28, 0x05, 0x00, 0x00,
  0xe8, 0x03, 0x00, 0x00, 0x3c, 0x03, 0x00, 0x00, 0x98, 0x02, 0x00, 0x00,
  0xd4, 0x01, 0x00, 0x00, 0x10, 0x01, 0x00, 0x00, 0x84, 0x00, 0x00, 0x00,
  0x01, 0x00, 0x00, 0x00, 0x00, 0x00, 0x00, 0x00, 0x01, 0x00, 0x00, 0x00,
  0x11, 0x00, 0x00, 0x00, 0x08, 0x00, 0x00, 0x00, 0x74, 0x05, 0x00, 0x00,
  0x94, 0x04, 0x00, 0x00, 0x78, 0x03, 0x00, 0x00, 0xbc, 0x02, 0x00, 0x00,
  0x30, 0x02, 0x00, 0x00, 0x50, 0x01, 0x00, 0x00, 0xa8, 0x00, 0x00, 0x00,
  0x10, 0x00, 0x00, 0x00, 0x04, 0x00, 0x00, 0x00, 0x6d, 0x61, 0x69, 0x6e,
  0x00, 0x00, 0x00, 0x00, 0x7a, 0xff, 0xff, 0xff, 0x00, 0x00, 0x00, 0x09,
  0x04, 0x00, 0x00, 0x00, 0x1c, 0x00, 0x00, 0x00, 0x10, 0x00, 0x00, 0x00,
  0x04, 0x00, 0x00, 0x00, 0xf6, 0xcf, 0xff, 0xff, 0x00, 0x00, 0x80, 0x3f,
  0x01, 0x00, 0x00, 0x00, 0x11, 0x00, 0x00, 0x00, 0x01, 0x00, 0x00, 0x00,
  0x10, 0x00, 0x00, 0x00, 0xa0, 0xfa, 0xff, 0xff, 0x19, 0x00, 0x00, 0x00,
  0x00, 0x00, 0x00, 0x19, 0x01, 0x00, 0x00, 0x00, 0x84, 0xcf, 0xff, 0xff,
  0x14, 0x00, 0x00, 0x00, 0x12, 0x00, 0x00, 0x00, 0x18, 0x00, 0x00, 0x00,
  0x30, 0x00, 0x00, 0x00, 0x20, 0x00, 0x00, 0x00, 0x02, 0x00, 0x00, 0x00,
  0x01, 0x00, 0x00, 0x00, 0x03, 0x00, 0x00, 0x00, 0x08, 0x00, 0x00, 0x00,
  0x49, 0x64, 0x65, 0x6e, 0x74, 0x69, 0x74, 0x79, 0x00, 0x00, 0x00, 0x00,
  0x02, 0x00, 0x00, 0x00, 0xff, 0xff, 0xff, 0xff, 0x03, 0x00, 0x00, 0x00,
  0x68, 0xd0, 0xff, 0xff, 0x00, 0x00, 0x0e, 0x00, 0x18, 0x00, 0x08, 0x00,
  0x0c, 0x00, 0x10, 0x00, 0x07, 0x00, 0x14, 0x00, 0x0e, 0x00, 0x00, 0x00,
  0x00, 0x00, 0x00, 0x08, 0x03, 0x00, 0x00, 0x00, 0x18, 0x00, 0x00, 0x00,
  0x0c, 0x00, 0x00, 0x00, 0x04, 0x00, 0x00, 0x00, 0x84, 0xcf, 0xff, 0xff,
  0x01, 0x00, 0x00, 0x00, 0x10, 0x00, 0x00, 0x00, 0x03, 0x00, 0x00, 0x00,
  0x0f, 0x00, 0x00, 0x00, 0x07, 0x00, 0x00, 0x00, 0x04, 0x00, 0x00, 0x00,
  0x0c, 0xd0, 0xff, 0xff, 0x14, 0x00, 0x00, 0x00, 0x11, 0x00, 0x00, 0x00,
  0x18, 0x00, 0x00, 0x00, 0x5c, 0x00, 0x00, 0x00, 0x4c, 0x00, 0x00, 0x00,
  0x02, 0x00, 0x00, 0x00, 0x01, 0x00, 0x00, 0x00, 0x03, 0x00, 0x00, 0x00,
  0x34, 0x00, 0x00, 0x00, 0x73, 0x65, 0x71, 0x75, 0x65, 0x6e, 0x74, 0x69,
  0x61, 0x6c, 0x2f, 0x64, 0x65, 0x6e, 0x73, 0x65, 0x5f, 0x31, 0x2f, 0x4d,
  0x61, 0x74, 0x4d, 0x75, 0x6c, 0x3b, 0x73, 0x65, 0x71, 0x75, 0x65, 0x6e,
  0x74, 0x69, 0x61, 0x6c, 0x2f, 0x64, 0x65, 0x6e, 0x73, 0x65, 0x5f, 0x31,
  0x2f, 0x42, 0x69, 0x61, 0x73, 0x41, 0x64, 0x64, 0x00, 0x00, 0x00, 0x00,
  0x02, 0x00, 0x00, 0x00, 0xff, 0xff, 0xff, 0xff, 0x03, 0x00, 0x00, 0x00,
  0x0c, 0xd0, 0xff, 0xff, 0xda, 0xfc, 0xff, 0xff, 0x00, 0x00, 0x00, 0x08,
  0x03, 0x00, 0x00, 0x00, 0x24, 0x00, 0x00, 0x00, 0x18, 0x00, 0x00, 0x00,
  0x0c, 0x00, 0x00, 0x00, 0x00, 0x00, 0x06, 0x00, 0x08, 0x00, 0x07, 0x00,
  0x06, 0x00, 0x00, 0x00, 0x00, 0x00, 0x00, 0x01, 0x01, 0x00, 0x00, 0x00,
  0x0f, 0x00, 0x00, 0x00, 0x03, 0x00, 0x00, 0x00, 0x0e, 0x00, 0x00, 0x00,
  0x06, 0x00, 0x00, 0x00, 0x03, 0x00, 0x00, 0x00, 0xe8, 0xfb, 0xff, 0xff,
  0x09, 0x00, 0x00, 0x00, 0x00, 0x00, 0x00, 0x09, 0x01, 0x00, 0x00, 0x00,
  0xcc, 0xd0, 0xff, 0xff, 0x14, 0x00, 0x00, 0x00, 0x10, 0x00, 0x00, 0x00,
  0x18, 0x00, 0x00, 0x00, 0x6c, 0x00, 0x00, 0x00, 0x5c, 0x00, 0x00, 0x00,
  0x02, 0x00, 0x00, 0x00, 0x01, 0x00, 0x00, 0x00, 0x10, 0x00, 0x00, 0x00,
  0x46, 0x00, 0x00, 0x00, 0x73, 0x65, 0x71, 0x75, 0x65, 0x6e, 0x74, 0x69,
  0x61, 0x6c, 0x2f, 0x64, 0x65, 0x6e, 0x73, 0x65, 0x2f, 0x4d, 0x61, 0x74,
  0x4d, 0x75, 0x6c, 0x3b, 0x73, 0x65, 0x71, 0x75, 0x65, 0x6e, 0x74, 0x69,
  0x61, 0x6c, 0x2f, 0x64, 0x65, 0x6e, 0x73, 0x65, 0x2f, 0x52, 0x65, 0x6c,
  0x75, 0x3b, 0x73, 0x65, 0x71, 0x75, 0x65, 0x6e, 0x74, 0x69, 0x61, 0x6c,
  0x2f, 0x64, 0x65, 0x6e, 0x73, 0x65, 0x2f, 0x42, 0x69, 0x61, 0x73, 0x41,
  0x64, 0x64, 0x00, 0x00, 0x02, 0x00, 0x00, 0x00, 0xff, 0xff, 0xff, 0xff,
  0x10, 0x00, 0x00, 0x00, 0xec, 0xd1, 0xff, 0xff, 0x00, 0x00, 0x0a, 0x00,
  0x10, 0x00, 0x04, 0x00, 0x08, 0x00, 0x0c, 0x00, 0x0a, 0x00, 0x00, 0x00,
  0x02, 0x00, 0x00, 0x00, 0x10, 0x00, 0x00, 0x00, 0x04, 0x00, 0x00, 0x00,
  0x01, 0x00, 0x00, 0x00, 0x0e, 0x00, 0x00, 0x00, 0x02, 0x00, 0x00, 0x00,
  0x0d, 0x00, 0x00, 0x00, 0x05, 0x00, 0x00, 0x00, 0xa8, 0xfc, 0xff, 0xff,
  0x16, 0x00, 0x00, 0x00, 0x00, 0x00, 0x00, 0x16, 0x01, 0x00, 0x00, 0x00,
  0x8c, 0xd1, 0xff, 0xff, 0x14, 0x00, 0x00, 0x00, 0x0f, 0x00, 0x00, 0x00,
  0x18, 0x00, 0x00, 0x00, 0x40, 0x00, 0x00, 0x00, 0x30, 0x00, 0x00, 0x00,
  0x02, 0x00, 0x00, 0x00, 0x01, 0x00, 0x00, 0x00, 0x70, 0x00, 0x00, 0x00,
  0x1a, 0x00, 0x00, 0x00, 0x73, 0x65, 0x71, 0x75, 0x65, 0x6e, 0x74, 0x69,
  0x61, 0x6c, 0x2f, 0x66, 0x6c, 0x61, 0x74, 0x74, 0x65, 0x6e, 0x2f, 0x52,
  0x65, 0x73, 0x68, 0x61, 0x70, 0x65, 0x00, 0x00, 0x02, 0x00, 0x00, 0x00,
  0xff, 0xff, 0xff, 0xff, 0x70, 0x00, 0x00, 0x00, 0x70, 0xd1, 0xff, 0xff,
  0x3e, 0xfe, 0xff, 0xff, 0x00, 0x00, 0x00, 0x05, 0x01, 0x00, 0x00, 0x00,
  0x38, 0x00, 0x00, 0x00, 0x2c, 0x00, 0x00, 0x00, 0x14, 0x00, 0x00, 0x00,
  0x00, 0x00, 0x0e, 0x00, 0x14, 0x00, 0x00, 0x00, 0x10, 0x00, 0x0c, 0x00,
  0x08, 0x00, 0x04, 0x00, 0x0e, 0x00, 0x00, 0x00, 0x03, 0x00, 0x00, 0x00,
  0x01, 0x00, 0x00, 0x00, 0x03, 0x00, 0x00, 0x00, 0x01, 0x00, 0x00, 0x00,
  0x01, 0x00, 0x00, 0x00, 0x0d, 0x00, 0x00, 0x00, 0x01, 0x00, 0x00, 0x00,
  0x0c, 0x00, 0x00, 0x00, 0x2c, 0xd2, 0xff, 0xff, 0x14, 0x00, 0x00, 0x00,
  0x0e, 0x00, 0x00, 0x00, 0x20, 0x00, 0x00, 0x00, 0x58, 0x00, 0x00, 0x00,
  0x40, 0x00, 0x00, 0x00, 0x04, 0x00, 0x00, 0x00, 0x01, 0x00, 0x00, 0x00,
  0x07, 0x00, 0x00, 0x00, 0x01, 0x00, 0x00, 0x00, 0x10, 0x00, 0x00, 0x00,
  0x22, 0x00, 0x00, 0x00, 0x73, 0x65, 0x71, 0x75, 0x65, 0x6e, 0x74, 0x69,
  0x61, 0x6c, 0x2f, 0x6d, 0x61, 0x78, 0x5f, 0x70, 0x6f, 0x6f, 0x6c, 0x69,
  0x6e, 0x67, 0x32, 0x64, 0x5f, 0x31, 0x2f, 0x4d, 0x61, 0x78, 0x50, 0x6f,
  0x6f, 0x6c, 0x00, 0x00, 0x04, 0x00, 0x00, 0x00, 0xff, 0xff, 0xff, 0xff,
  0x07, 0x00, 0x00, 0x00, 0x01, 0x00, 0x00, 0x00, 0x10, 0x00, 0x00, 0x00,
  0x28, 0xd2, 0xff, 0xff, 0x1a, 0xfe, 0xff, 0xff, 0x00, 0x00, 0x00, 0x01,
  0x24, 0x00, 0x00, 0x00, 0x18, 0x00, 0x00, 0x00, 0x04, 0x00, 0x00, 0x00,
  0x0c, 0xfe, 0xff, 0xff, 0x01, 0x00, 0x00, 0x00, 0x01, 0x00, 0x00, 0x00,
  0x00, 0x00, 0x00, 0x01, 0x01, 0x00, 0x00, 0x00, 0x0c, 0x00, 0x00, 0x00,
  0x03, 0x00, 0x00, 0x00, 0x0b, 0x00, 0x00, 0x00, 0x09, 0x00, 0x00, 0x00,
  0x02, 0x00, 0x00, 0x00, 0xd4, 0xd2, 0xff, 0xff, 0x14, 0x00, 0x00, 0x00,
  0x0d, 0x00, 0x00, 0x00, 0x20, 0x00, 0x00, 0x00, 0xb8, 0x00, 0x00, 0x00,
  0xa0, 0x00, 0x00, 0x00, 0x04, 0x00, 0x00, 0x00, 0x01, 0x00, 0x00, 0x00,
  0x15, 0x00, 0x00, 0x00, 0x01, 0x00, 0x00, 0x00, 0x10, 0x00, 0x00, 0x00,
  0x83, 0x00, 0x00, 0x00, 0x73, 0x65, 0x71, 0x75, 0x65, 0x6e, 0x74, 0x69,
  0x61, 0x6c, 0x2f, 0x63, 0x6f, 0x6e, 0x76, 0x32, 0x64, 0x5f, 0x31, 0x2f,
  0x52, 0x65, 0x6c, 0x75, 0x3b, 0x73, 0x65, 0x71, 0x75, 0x65, 0x6e, 0x74,
  0x69, 0x61, 0x6c, 0x2f, 0x63, 0x6f, 0x6e, 0x76, 0x32, 0x64, 0x5f, 0x31,
  0x2f, 0x42, 0x69, 0x61, 0x73, 0x41, 0x64, 0x64, 0x3b, 0x73, 0x65, 0x71,
  0x75, 0x65, 0x6e, 0x74, 0x69, 0x61, 0x6c, 0x2f, 0x63, 0x6f, 0x6e, 0x76,
  0x32, 0x64, 0x5f, 0x31, 0x2f, 0x43, 0x6f, 0x6e, 0x76, 0x32, 0x44, 0x3b,
  0x73, 0x65, 0x71, 0x75, 0x65, 0x6e, 0x74, 0x69, 0x61, 0x6c, 0x2f, 0x63,
  0x6f, 0x6e, 0x76, 0x32, 0x64, 0x5f, 0x31, 0x2f, 0x42, 0x69, 0x61, 0x73,
  0x41, 0x64, 0x64, 0x2f, 0x52, 0x65, 0x61, 0x64, 0x56, 0x61, 0x72, 0x69,
  0x61, 0x62, 0x6c, 0x65, 0x4f, 0x70, 0x2f, 0x72, 0x65, 0x73, 0x6f, 0x75,
  0x72, 0x63, 0x65, 0x00, 0x04, 0x00, 0x00, 0x00, 0xff, 0xff, 0xff, 0xff,
  0x15, 0x00, 0x00, 0x00, 0x01, 0x00, 0x00, 0x00, 0x10, 0x00, 0x00, 0x00,
  0x40, 0xd4, 0xff, 0xff, 0x00, 0x00, 0x0e, 0x00, 0x1a, 0x00, 0x08, 0x00,
  0x0c, 0x00, 0x10, 0x00, 0x07, 0x00, 0x14, 0x00, 0x0e, 0x00, 0x00, 0x00,
  0x00, 0x00, 0x00, 0x05, 0x01, 0x00, 0x00, 0x00, 0x3c, 0x00, 0x00, 0x00,
  0x30, 0x00, 0x00, 0x00, 0x14, 0x00, 0x00, 0x00, 0x00, 0x00, 0x0e, 0x00,
  0x18, 0x00, 0x17, 0x00, 0x10, 0x00, 0x0c, 0x00, 0x08, 0x00, 0x04, 0x00,
  0x0e, 0x00, 0x00, 0x00, 0x03, 0x00, 0x00, 0x00, 0x03, 0x00, 0x00, 0x00,
  0x03, 0x00, 0x00, 0x00, 0x03, 0x00, 0x00, 0x00, 0x00, 0x00, 0x00, 0x01,
  0x01, 0x00, 0x00, 0x00, 0x0b, 0x00, 0x00, 0x00, 0x01, 0x00, 0x00, 0x00,
  0x0a, 0x00, 0x00, 0x00, 0x2c, 0xff, 0xff, 0xff, 0x11, 0x00, 0x00, 0x00,
  0x00, 0x00, 0x00, 0x11, 0x01, 0x00, 0x00, 0x00, 0x10, 0xd4, 0xff, 0xff,
  0x14, 0x00, 0x00, 0x00, 0x0c, 0x00, 0x00, 0x00, 0x20, 0x00, 0x00, 0x00,
  0x58, 0x00, 0x00, 0x00, 0x40, 0x00, 0x00, 0x00, 0x04, 0x00, 0x00, 0x00,
  0x01, 0x00, 0x00, 0x00, 0x15, 0x00, 0x00, 0x00, 0x01, 0x00, 0x00, 0x00,
  0x08, 0x00, 0x00, 0x00, 0x20, 0x00, 0x00, 0x00, 0x73, 0x65, 0x71, 0x75,
  0x65, 0x6e, 0x74, 0x69, 0x61, 0x6c, 0x2f, 0x6d, 0x61, 0x78, 0x5f, 0x70,
  0x6f, 0x6f, 0x6c, 0x69, 0x6e, 0x67, 0x32, 0x64, 0x2f, 0x4d, 0x61, 0x78,
  0x50, 0x6f, 0x6f, 0x6c, 0x00, 0x00, 0x00, 0x00, 0x04, 0x00, 0x00, 0x00,
  0xff, 0xff, 0xff, 0xff, 0x15, 0x00, 0x00, 0x00, 0x01, 0x00, 0x00, 0x00,
  0x08, 0x00, 0x00, 0x00, 0x1c, 0xd5, 0xff, 0xff, 0x00, 0x00, 0x0e, 0x00,
  0x14, 0x00, 0x00, 0x00, 0x08, 0x00, 0x0c, 0x00, 0x07, 0x00, 0x10, 0x00,
  0x0e, 0x00, 0x00, 0x00, 0x00, 0x00, 0x00, 0x01, 0x30, 0x00, 0x00, 0x00,
  0x24, 0x00, 0x00, 0x00, 0x10, 0x00, 0x00, 0x00, 0x0c, 0x00, 0x10, 0x00,
  0x00, 0x00, 0x04, 0x00, 0x08, 0x00, 0x0f, 0x00, 0x0c, 0x00, 0x00, 0x00,
  0x01, 0x00, 0x00, 0x00, 0x01, 0x00, 0x00, 0x00, 0x00, 0x00, 0x00, 0x01,
  0x01, 0x00, 0x00, 0x00, 0x0a, 0x00, 0x00, 0x00, 0x03, 0x00, 0x00, 0x00,
  0x00, 0x00, 0x00, 0x00, 0x08, 0x00, 0x00, 0x00, 0x01, 0x00, 0x00, 0x00,
  0x0c, 0x00, 0x10, 0x00, 0x0b, 0x00, 0x00, 0x00, 0x0c, 0x00, 0x04, 0x00,
  0x0c, 0x00, 0x00, 0x00, 0x03, 0x00, 0x00, 0x00, 0x00, 0x00, 0x00, 0x03,
  0x01, 0x00, 0x00, 0x00, 0xf0, 0xd4, 0xff, 0xff, 0x14, 0x00, 0x00, 0x00,
  0x0b, 0x00, 0x00, 0x00, 0x20, 0x00, 0x00, 0x00, 0xb0, 0x00, 0x00, 0x00,
  0x98, 0x00, 0x00, 0x00, 0x04, 0x00, 0x00, 0x00, 0x01, 0x00, 0x00, 0x00,
  0x40, 0x00, 0x00, 0x00, 0x03, 0x00, 0x00, 0x00, 0x08, 0x00, 0x00, 0x00,
  0x7b, 0x00, 0x00, 0x00, 0x73, 0x65, 0x71, 0x75, 0x65, 0x6e, 0x74, 0x69,
  0x61, 0x6c, 0x2f, 0x63, 0x6f, 0x6e, 0x76, 0x32, 0x64, 0x2f, 0x52, 0x65,
  0x6c, 0x75, 0x3b, 0x73, 0x65, 0x71, 0x75, 0x65, 0x6e, 0x74, 0x69, 0x61,
  0x6c, 0x2f, 0x63, 0x6f, 0x6e, 0x76, 0x32, 0x64, 0x2f, 0x42, 0x69, 0x61,
  0x73, 0x41, 0x64, 0x64, 0x3b, 0x73, 0x65, 0x71, 0x75, 0x65, 0x6e, 0x74,
  0x69, 0x61, 0x6c, 0x2f, 0x63, 0x6f, 0x6e, 0x76, 0x32, 0x64, 0x2f, 0x43,
  0x6f, 0x6e, 0x76, 0x32, 0x44, 0x3b, 0x73, 0x65, 0x71, 0x75, 0x65, 0x6e,
  0x74, 0x69, 0x61, 0x6c, 0x2f, 0x63, 0x6f, 0x6e, 0x76, 0x32, 0x64, 0x2f,
  0x42, 0x69, 0x61, 0x73, 0x41, 0x64, 0x64, 0x2f, 0x52, 0x65, 0x61, 0x64,
  0x56, 0x61, 0x72, 0x69, 0x61, 0x62, 0x6c, 0x65, 0x4f, 0x70, 0x2f, 0x72,
  0x65, 0x73, 0x6f, 0x75, 0x72, 0x63, 0x65, 0x00, 0x04, 0x00, 0x00, 0x00,
  0xff, 0xff, 0xff, 0xff, 0x40, 0x00, 0x00, 0x00, 0x03, 0x00, 0x00, 0x00,
  0x08, 0x00, 0x00, 0x00, 0x44, 0xd5, 0xff, 0xff, 0x4e, 0xd6, 0xff, 0xff,
  0x04, 0x00, 0x00, 0x00, 0x00, 0x08, 0x00, 0x00, 0xad, 0x78, 0x23, 0x3f,
  0x53, 0x6d, 0x87, 0x3d, 0x56, 0xfe, 0x37, 0xbd, 0xfa, 0x39, 0x59, 0x3e,
  0xbc, 0x12, 0x07, 0xbe, 0x79, 0x54, 0xf9, 0xbd, 0xa4, 0xf6, 0x00, 0xbf,
  0xdd, 0x9a, 0x00, 0xbe, 0xa2, 0xcd, 0x08, 0xbe, 0x78, 0xdc, 0xa1, 0x3b,
  0xac, 0x0a, 0x58, 0xbe, 0x1f, 0x2f, 0xa9, 0xbd, 0x8d, 0xda, 0x45, 0xbe,
  0x70, 0x77, 0x58, 0xbe, 0x0f, 0xe3, 0x19, 0xbc, 0x2d, 0x4a, 0xb8, 0x3d,
  0xc5, 0x78, 0xc5, 0xbd, 0x8b, 0x09, 0x86, 0x3e, 0x1b, 0x31, 0x17, 0xbe,
  0xf6, 0x94, 0x6e, 0xbd, 0x4b, 0x4a, 0x9a, 0xbd, 0xb5, 0x59, 0xc9, 0xbd,
  0x49, 0xba, 0xe7, 0x3b, 0xdb, 0xb2, 0x47, 0x3c, 0x84, 0xed, 0xb2, 0xbd,
  0x03, 0x48, 0xe5, 0xbe, 0x19, 0x0e, 0x90, 0x3d, 0xf4, 0xe7, 0x89, 0xbd,
  0xef, 0xf2, 0xe6, 0xbd, 0x34, 0x8d, 0xce, 0xbd, 0x98, 0xde, 0x15, 0x3d,
  0xd9, 0xc5, 0x82, 0xbe, 0xfc, 0x6f, 0xdc, 0xbd, 0x65, 0x1e, 0xe6, 0xbc,
  0x43, 0xb4, 0x8c, 0x3e, 0xd8, 0x60, 0xa9, 0xbe, 0x0c, 0xbc, 0x3d, 0x3e,
  0x93, 0x2a, 0x19, 0x3e, 0xb4, 0xde, 0x33, 0x3d, 0xf1, 0x11, 0x98, 0x3e,
  0xa8, 0x83, 0x34, 0xbe, 0x8c, 0x00, 0x39, 0xbe, 0xc5, 0x03, 0x28, 0x3e,
  0xb1, 0x77, 0x85, 0xbe, 0xd2, 0xe6, 0x3c, 0x3c, 0xc1, 0xe5, 0xfe, 0xbd,
  0x21, 0x45, 0x59, 0xbd, 0x63, 0xcf, 0xb1, 0xbe, 0xf2, 0x1d, 0x35, 0xbe,
  0x06, 0x87, 0x08, 0xbd, 0x91, 0x23, 0x6e, 0x3e, 0x2b, 0xa7, 0x1a, 0xbe,
  0x8f, 0x36, 0xb9, 0xbd, 0x96, 0xb1, 0xc6, 0xbd, 0xe1, 0xbf, 0x02, 0xbd,
  0x1e, 0x6f, 0xa3, 0xbe, 0xa4, 0xad, 0x49, 0x3d, 0x76, 0xd4, 0xf2, 0xbc,
  0x23, 0xca, 0xa8, 0x3d, 0x79, 0x4b, 0x10, 0x3f, 0x71, 0x1e, 0x3c, 0xbe,
  0x2f, 0x9b, 0x0e, 0xbe, 0xd4, 0xdd, 0x27, 0xbd, 0xc9, 0xef, 0x92, 0xbe,
  0xe8, 0xbb, 0x00, 0xbe, 0xa2, 0x6b, 0x15, 0xbf, 0x7b, 0xcf, 0x79, 0xbc,
  0x16, 0x92, 0xcf, 0xbd, 0x76, 0x23, 0xd9, 0xbe, 0x88, 0x32, 0x8b, 0xbe,
  0x67, 0xe6, 0x76, 0xbe, 0x13, 0x92, 0xb6, 0xbe, 0xf3, 0x9d, 0x07, 0x3f,
  0x8d, 0x8d, 0xb4, 0x3c, 0x18, 0xe3, 0x7d, 0x3e, 0xd7, 0x92, 0xed, 0x3d,
  0x2d, 0xed, 0x4c, 0xbe, 0x04, 0x79, 0x0f, 0xbe, 0x3d, 0x91, 0x47, 0xbe,
  0x68, 0x8c, 0x8d, 0xbd, 0x1f, 0xff, 0x2f, 0xbe, 0xce, 0x08, 0x83, 0x3c,
  0x92, 0x9f, 0x28, 0xbe, 0x9c, 0x34, 0x12, 0x3d, 0x09, 0xb0, 0x36, 0xbe,
  0x24, 0x76, 0x35, 0xbe, 0x11, 0x48, 0x51, 0x3e, 0x10, 0x9a, 0x4a, 0xbd,
  0xc6, 0xa0, 0x16, 0xbe, 0xc9, 0xef, 0x76, 0xbc, 0x9e, 0x0e, 0xf5, 0xbd,
  0x72, 0x3b, 0xc8, 0x3d, 0x78, 0x4f, 0x26, 0xbe, 0x25, 0xa8, 0xa9, 0xbd,
  0x5f, 0x8d, 0x93, 0x3e, 0x84, 0x7a, 0x4c, 0x3d, 0x04, 0xbe, 0x13, 0xbd,
  0x03, 0x8d, 0x92, 0xbe, 0xa5, 0xec, 0x99, 0x3b, 0xf3, 0xe2, 0xb9, 0xbe,
  0x61, 0x67, 0x66, 0xbe, 0x93, 0x85, 0x7d, 0xbe, 0x29, 0xd9, 0x7e, 0xbe,
  0xea, 0x52, 0x89, 0xbe, 0x71, 0x9b, 0x8b, 0x3d, 0xcd, 0xd8, 0x32, 0xbe,
  0x4e, 0xe1, 0xcf, 0x3c, 0x27, 0xd5, 0x45, 0xbd, 0xcc, 0xf5, 0x3f, 0x3c,
  0x24, 0x43, 0x4c, 0x3e, 0x0f, 0x6a, 0xb0, 0x3d, 0x2d, 0x10, 0x3d, 0xbd,
  0x07, 0x83, 0x72, 0xbd, 0x5a, 0xae, 0x6e, 0xbe, 0x91, 0x8c, 0x94, 0xbe,
  0x53, 0xf5, 0xa3, 0xbb, 0x20, 0x5a, 0xa1, 0xbc, 0x5f, 0xe2, 0x35, 0xbd,
  0x3c, 0xbf, 0x8b, 0xbd, 0x14, 0x5d, 0xf5, 0xbd, 0xc2, 0x89, 0xb3, 0x3d,
  0x48, 0xc8, 0x8f, 0xbd, 0x3e, 0xec, 0x2b, 0xbd, 0xdf, 0x98, 0x73, 0x3d,
  0xfa, 0x7c, 0xd7, 0x3d, 0x66, 0x55, 0xcb, 0x3d, 0x34, 0x47, 0xab, 0xbc,
  0x5e, 0xaa, 0x60, 0xbd, 0x87, 0xb5, 0xe7, 0x3d, 0x51, 0x3c, 0x4f, 0x3e,
  0xd6, 0x58, 0xd2, 0x3d, 0x91, 0x04, 0x44, 0x3e, 0x4f, 0xec, 0x4d, 0xbe,
  0x4e, 0x9e, 0xed, 0xbd, 0x73, 0x1e, 0x0b, 0xbe, 0x02, 0xa4, 0xe5, 0xbc,
  0x46, 0x16, 0xdc, 0xbe, 0xcc, 0x50, 0xb2, 0x3e, 0x80, 0xce, 0xdb, 0xbe,
  0x68, 0xc1, 0x56, 0xbd, 0x1f, 0x25, 0x76, 0xbc, 0x5a, 0x2b, 0xd9, 0xbb,
  0x9f, 0xc3, 0x77, 0xbc, 0xbb, 0x51, 0x2e, 0x3d, 0x24, 0x29, 0xa3, 0xbe,
  0x65, 0x72, 0xd0, 0x3c, 0x1c, 0xfa, 0x51, 0xbc, 0xdc, 0x6c, 0xe5, 0xbc,
  0x69, 0xa7, 0x4f, 0x3d, 0xca, 0x69, 0x9b, 0x3c, 0x58, 0xe7, 0x8b, 0xbd,
  0xc6, 0xeb, 0x0a, 0x3e, 0xba, 0x7d, 0x85, 0xbe, 0x2d, 0x37, 0x0e, 0xbf,
  0x89, 0xf0, 0xbb, 0x3d, 0x3f, 0x3b, 0xf8, 0xbd, 0xa4, 0x1c, 0xa8, 0x3d,
  0x3a, 0xba, 0x1c, 0xbd, 0x27, 0x08, 0x6a, 0xbd, 0x8a, 0xd7, 0x1c, 0xbe,
  0xfb, 0xf0, 0x9b, 0xbe, 0x7d, 0x44, 0x02, 0x3e, 0xe7, 0xb2, 0x25, 0xbe,
  0xd2, 0x13, 0x3a, 0xbe, 0x45, 0x2d, 0x82, 0xbd, 0xe1, 0x63, 0x4d, 0xbd,
  0x25, 0x49, 0x8d, 0x3e, 0xf1, 0xe0, 0x1c, 0xbc, 0x6f, 0xe7, 0x27, 0x3e,
  0x88, 0x9c, 0xdf, 0xbe, 0x00, 0x6c, 0x8e, 0x3d, 0xb5, 0x7d, 0x09, 0xbe,
  0x6d, 0x36, 0x55, 0x3c, 0xeb, 0xd3, 0x4d, 0x3d, 0xef, 0x5d, 0x6b, 0xbd,
  0xa6, 0xa6, 0xf1, 0xbe, 0x98, 0x17, 0x9a, 0x3d, 0x0b, 0x69, 0xab, 0xbd,
  0x3b, 0xcf, 0x19, 0x3e, 0xea, 0x8c, 0x95, 0x3d, 0xa5, 0xa9, 0xd7, 0x3d,
  0x08, 0x56, 0x76, 0x3e, 0xd2, 0x0b, 0x4f, 0xbe, 0x0d, 0xcd, 0x9c, 0x3d,
  0xf9, 0x82, 0x9b, 0xbe, 0xc1, 0xe4, 0x29, 0xbe, 0x7c, 0x6f, 0xfc, 0xbd,
  0x14, 0xb4, 0x1f, 0xbe, 0x5f, 0x43, 0xe3, 0xbd, 0x89, 0x16, 0x09, 0x3e,
  0x0f, 0x0a, 0x9e, 0xbd, 0xec, 0x15, 0xa2, 0xbd, 0x27, 0x5d, 0x20, 0x3e,
  0x82, 0x56, 0x5c, 0xbe, 0x41, 0xf2, 0x97, 0x3c, 0xab, 0xf9, 0x91, 0xbe,
  0xb4, 0xf0, 0x1c, 0xbe, 0xaa, 0x91, 0x73, 0xbe, 0x60, 0xd6, 0x76, 0xbe,
  0xf4, 0xde, 0xae, 0xbe, 0xb0, 0xbf, 0xb3, 0x3d, 0xd2, 0xfd, 0xbe, 0xbe,
  0xe6, 0xd9, 0x69, 0x3d, 0xf2, 0x37, 0xa6, 0xbe, 0xbd, 0x4b, 0x1f, 0x3e,
  0x8f, 0x1e, 0x55, 0x3e, 0xa9, 0xce, 0xbb, 0xbd, 0x25, 0x15, 0x6d, 0xbd,
  0x3e, 0x1e, 0x15, 0xbd, 0x41, 0x18, 0xa0, 0xbe, 0xfa, 0x66, 0x4a, 0xbe,
  0xe7, 0x81, 0x39, 0xbe, 0xfc, 0xd8, 0x13, 0x3e, 0x1f, 0x7e, 0xbe, 0x3d,
  0x13, 0x03, 0xee, 0xbd, 0x92, 0x5e, 0x21, 0xbe, 0x6e, 0x79, 0x5a, 0x3c,
  0xc3, 0xed, 0x36, 0xbe, 0xbc, 0xef, 0x8e, 0x3c, 0x94, 0xb2, 0xa4, 0xbd,
  0xbb, 0x1f, 0x6e, 0x3e, 0x96, 0x75, 0xe5, 0x3d, 0x45, 0x6a, 0x0d, 0xbe,
  0xe5, 0x3b, 0x8f, 0xbe, 0x5b, 0xb1, 0xd7, 0x3e, 0x58, 0x57, 0x16, 0xbf,
  0x6e, 0x08, 0x6e, 0x3e, 0x41, 0x44, 0xb0, 0xbc, 0xd1, 0x19, 0x8d, 0xbe,
  0xb5, 0x73, 0x38, 0xbe, 0x3b, 0x9c, 0x2b, 0xbf, 0x57, 0xd6, 0x3c, 0xbf,
  0xef, 0x18, 0x33, 0xbe, 0x32, 0x30, 0xdb, 0x3e, 0x33, 0xde, 0x92, 0x3e,
  0x4d, 0xca, 0x40, 0x3c, 0x28, 0x25, 0x46, 0xbe, 0x20, 0x34, 0x21, 0xbe,
  0x4a, 0xd0, 0x09, 0xbf, 0x50, 0xb9, 0x1d, 0xbe, 0xf8, 0x99, 0xe9, 0xbd,
  0x53, 0x1e, 0x5e, 0x3e, 0x28, 0xf8, 0xe5, 0xbe, 0xc6, 0x06, 0xac, 0xbc,
  0x59, 0x8f, 0xb5, 0xbd, 0x61, 0x3f, 0xed, 0xbd, 0x16, 0x51, 0x62, 0x3e,
  0x80, 0x4e, 0x78, 0x3d, 0x29, 0xc2, 0xff, 0xbd, 0x66, 0xe5, 0x1c, 0xbd,
  0xe6, 0x15, 0x85, 0xbd, 0x72, 0x7a, 0x2e, 0xbd, 0x60, 0x07, 0x18, 0xbd,
  0x1c, 0x16, 0xaa, 0xbd, 0x77, 0x24, 0x09, 0x3b, 0x63, 0xe9, 0xa0, 0x3c,
  0xa3, 0x5c, 0x04, 0xbe, 0xd4, 0xcf, 0x90, 0xbe, 0x4b, 0xa4, 0x0d, 0xbf,
  0xc4, 0x24, 0x32, 0x3b, 0x59, 0x76, 0xb0, 0xbe, 0x14, 0x8b, 0xfd, 0xbd,
  0xf2, 0xc0, 0x4d, 0xbd, 0xf9, 0x38, 0x41, 0xbe, 0xe2, 0xc7, 0x75, 0xbd,
  0xa3, 0xf3, 0x30, 0xbf, 0xfe, 0xb2, 0xc3, 0xbd, 0x8b, 0x20, 0x6c, 0xbd,
  0x95, 0xa5, 0x02, 0xbe, 0x92, 0x97, 0x99, 0xbd, 0xe3, 0x3d, 0xc7, 0xbd,
  0x11, 0x72, 0xbd, 0xbe, 0xfd, 0x7e, 0x97, 0x3b, 0x0f, 0x1b, 0x44, 0xbe,
  0x70, 0x30, 0x03, 0x3f, 0xdc, 0xae, 0x31, 0x3d, 0x48, 0x96, 0x31, 0xbe,
  0xf3, 0x9a, 0xff, 0x3b, 0x11, 0x58, 0x5a, 0x3d, 0x88, 0x10, 0xe2, 0x3c,
  0x32, 0xa7, 0x31, 0x3e, 0xe6, 0xbd, 0x8a, 0x3d, 0x0b, 0xf5, 0xbc, 0x3e,
  0x35, 0x7a, 0x37, 0x3e, 0xa0, 0xa7, 0xe0, 0x3c, 0x3f, 0x25, 0xae, 0xbc,
  0x53, 0x62, 0xff, 0xbd, 0x80, 0x3e, 0x15, 0x3d, 0xa6, 0xb1, 0xbb, 0xbb,
  0xeb, 0x0b, 0x3b, 0xbe, 0x9e, 0x8d, 0xbe, 0x3e, 0x39, 0xb0, 0x0c, 0xbd,
  0xac, 0xd6, 0xb9, 0x3e, 0xef, 0x66, 0x2f, 0x3e, 0x46, 0x42, 0xb5, 0xbd,
  0x06, 0x3e, 0x6e, 0xbc, 0xa0, 0xb7, 0xe5, 0xbd, 0x87, 0x08, 0xf4, 0xbd,
  0xf7, 0x2b, 0xb3, 0xbd, 0x5e, 0x23, 0x96, 0xbd, 0x58, 0xbd, 0xbb, 0xbd,
  0x71, 0x54, 0x0b, 0xbe, 0x76, 0xa0, 0x03, 0xbe, 0xae, 0x8f, 0x4e, 0xbe,
  0x23, 0x6d, 0xb8, 0xbd, 0x01, 0x99, 0x09, 0xbe, 0x4c, 0xe2, 0xab, 0xbd,
  0x6c, 0xf8, 0xc8, 0xbd, 0xe5, 0xbd, 0xc0, 0xbe, 0x16, 0x48, 0x26, 0x3e,
  0xd6, 0x56, 0x30, 0xbf, 0x78, 0xc4, 0x67, 0xbe, 0xa2, 0x89, 0x72, 0x3d,
  0x48, 0xf0, 0x5d, 0xbd, 0x65, 0xb2, 0x43, 0x3d, 0xa1, 0x73, 0x47, 0xbe,
  0xa9, 0x33, 0xf0, 0xbd, 0x94, 0x12, 0x52, 0x3e, 0x8a, 0xb4, 0x0e, 0xbf,
  0xe9, 0x9d, 0x4a, 0xbe, 0xc6, 0xc0, 0x6f, 0xbd, 0x99, 0xf6, 0x02, 0xbc,
  0x29, 0x8e, 0xa0, 0x3e, 0xce, 0x69, 0xa7, 0xbe, 0x02, 0x16, 0x6e, 0x3e,
  0x61, 0xb4, 0x91, 0xbc, 0xc4, 0xf2, 0x91, 0xbd, 0xab, 0x4a, 0xc9, 0x3d,
  0x56, 0x68, 0x62, 0xbe, 0x25, 0x47, 0x21, 0xbd, 0xbf, 0x5e, 0x01, 0xbc,
  0x60, 0xee, 0x54, 0xbb, 0x1c, 0x66, 0xb1, 0x3e, 0x52, 0xa6, 0x4b, 0xb9,
  0x5e, 0xf1, 0x7d, 0x3c, 0xc2, 0x97, 0x86, 0xbe, 0xfc, 0xf9, 0x3c, 0xbe,
  0x15, 0x06, 0x74, 0x3d, 0x0f, 0x0f, 0xac, 0x3e, 0x82, 0xe3, 0x0d, 0xbe,
  0x6e, 0xfc, 0x73, 0xbe, 0x9f, 0xd4, 0x38, 0xbe, 0xeb, 0xb2, 0x8b, 0xbc,
  0xd3, 0xa1, 0x15, 0xbe, 0x37, 0x2a, 0x1f, 0xbd, 0xf3, 0x68, 0x43, 0x3d,
  0x6e, 0x36, 0x93, 0x3e, 0x07, 0xb0, 0xac, 0xbc, 0xd2, 0xc2, 0x83, 0xbe,
  0x46, 0xaf, 0x76, 0xbe, 0x25, 0x52, 0x6f, 0xbd, 0x3d, 0x70, 0xd2, 0xbe,
  0xf9, 0x02, 0xd7, 0xbe, 0x1f, 0x6c, 0xd8, 0xbe, 0x07, 0x7e, 0x82, 0xbe,
  0xb7, 0x6f, 0x5c, 0xbd, 0xfb, 0x06, 0xde, 0xbd, 0x23, 0xe5, 0x93, 0xbe,
  0xf5, 0x58, 0x06, 0xbe, 0xc7, 0x87, 0xae, 0xbc, 0xdd, 0x5f, 0x46, 0x3e,
  0xfb, 0x5b, 0x6a, 0xbe, 0x60, 0x71, 0x58, 0x3e, 0x75, 0x5f, 0xe1, 0xbd,
  0x7c, 0xb6, 0xfc, 0x3c, 0x23, 0xe9, 0x94, 0xbe, 0xf5, 0xee, 0x93, 0xbc,
  0x97, 0x8b, 0x0d, 0x3e, 0x15, 0x39, 0x9f, 0xbe, 0x0d, 0x9f, 0x99, 0xbe,
  0x2b, 0xb7, 0xbd, 0xbd, 0x35, 0x9f, 0xb1, 0xbe, 0x94, 0xef, 0xb8, 0xbe,
  0x3b, 0x8f, 0x85, 0xbe, 0x30, 0x71, 0xe0, 0xbe, 0x77, 0xcb, 0xa1, 0xbe,
  0xd1, 0x0b, 0x5e, 0xbd, 0x91, 0xfc, 0x2e, 0xbe, 0x52, 0x8b, 0x48, 0x3d,
  0x31, 0xf2, 0x5a, 0xbe, 0xb6, 0x8c, 0xd1, 0xbd, 0x4d, 0x8e, 0x3d, 0x3d,
  0x6a, 0x67, 0x73, 0xbe, 0x49, 0xe6, 0xac, 0xbc, 0x83, 0x3f, 0x37, 0xbf,
  0x5a, 0x4d, 0x37, 0x3c, 0xb3, 0x34, 0xb7, 0xbe, 0x20, 0x8c, 0x89, 0xbe,
  0xce, 0xdf, 0x72, 0xbd, 0x58, 0x42, 0xc8, 0x3d, 0x50, 0x13, 0x86, 0xbb,
  0xb2, 0xbf, 0x08, 0x3e, 0xc7, 0x99, 0xf6, 0xbd, 0x99, 0x0a, 0x92, 0x3e,
  0x18, 0xb4, 0x23, 0x3d, 0x35, 0xaa, 0xb4, 0xbe, 0x91, 0x33, 0x76, 0x3d,
  0x5c, 0xeb, 0xb2, 0x3c, 0xfe, 0x8c, 0x1e, 0xbd, 0x3c, 0xde, 0xac, 0x3e,
  0xa9, 0xdd, 0xbb, 0xbd, 0xac, 0x07, 0xec, 0xbe, 0x58, 0x0d, 0x76, 0x3e,
  0x1d, 0xde, 0x44, 0xbc, 0xbe, 0x40, 0xd5, 0x3d, 0x72, 0x14, 0x57, 0xbd,
  0x19, 0xda, 0x94, 0xbd, 0xac, 0xdc, 0x47, 0xbe, 0x7d, 0x9f, 0xbd, 0xbc,
  0x57, 0xe8, 0x41, 0xbe, 0xc4, 0x06, 0x32, 0x3e, 0x9a, 0x7a, 0x33, 0xbc,
  0x51, 0x12, 0x8c, 0xbd, 0xd1, 0x5f, 0xe2, 0xbd, 0xcc, 0x69, 0x26, 0xbd,
  0x25, 0xd7, 0xa2, 0xbe, 0xbe, 0xa3, 0xd7, 0x3e, 0xd7, 0x97, 0x5e, 0x3c,
  0xe4, 0xb9, 0xb1, 0xbd, 0xd3, 0xbf, 0x15, 0xbd, 0x20, 0x8b, 0x06, 0xbc,
  0x77, 0xe2, 0xaa, 0xbd, 0x84, 0x2f, 0x06, 0x3d, 0x42, 0x05, 0xcd, 0x3d,
  0x35, 0x02, 0xd5, 0xbd, 0xe3, 0xdc, 0x15, 0x3e, 0x91, 0x34, 0x4c, 0x3e,
  0xed, 0xe9, 0xb8, 0x3d, 0xab, 0x2a, 0x9a, 0xbc, 0xd3, 0xbf, 0xc4, 0xbd,
  0x13, 0xb1, 0x88, 0xbd, 0x68, 0x5a, 0x98, 0xbd, 0xe2, 0x28, 0x9f, 0xbc,
  0x09, 0xa1, 0x77, 0x3d, 0x2a, 0x8f, 0xcd, 0x3d, 0x7b, 0x92, 0x3c, 0xbd,
  0x00, 0x16, 0x85, 0xbd, 0x71, 0xe0, 0xa8, 0xbd, 0x4f, 0xa1, 0x83, 0xbd,
  0xbd, 0x88, 0x0b, 0xbd, 0xc5, 0x11, 0x25, 0xbc, 0xaf, 0x67, 0xcc, 0xbd,
  0xe0, 0x95, 0x6a, 0xbe, 0x44, 0x93, 0x37, 0xbd, 0x21, 0x67, 0x0a, 0x3e,
  0x42, 0xd1, 0x75, 0x3e, 0xdb, 0xf8, 0xab, 0x3e, 0x17, 0x1b, 0x82, 0x3d,
  0x47, 0x2d, 0x1a, 0xbe, 0x4f, 0x8b, 0x05, 0xbf, 0xb5, 0xd3, 0xa6, 0xbe,
  0x4c, 0xac, 0x17, 0x3d, 0x96, 0xf4, 0x68, 0xbe, 0x1b, 0xb2, 0xfa, 0xbd,
  0x68, 0xfb, 0xaa, 0xbd, 0x49, 0x3e, 0x1a, 0xbe, 0x64, 0x60, 0x15, 0xbe,
  0x97, 0x21, 0xce, 0x3e, 0xd1, 0x2b, 0x38, 0xbe, 0x3d, 0x41, 0x62, 0xbb,
  0x2a, 0xd9, 0x40, 0xbe, 0xf0, 0x28, 0xaa, 0xbd, 0x3c, 0xac, 0xaf, 0xbd,
  0x30, 0xb1, 0x03, 0xbe, 0x19, 0x9a, 0xf9, 0xbc, 0x89, 0x85, 0x69, 0x3e,
  0xeb, 0xca, 0xbf, 0x3e, 0x63, 0x01, 0x78, 0xbc, 0xe7, 0x22, 0x08, 0x3d,
  0xe2, 0xfc, 0xb5, 0x3d, 0xc2, 0xae, 0xa1, 0xbd, 0xa6, 0x2d, 0x6d, 0x3e,
  0x29, 0x1b, 0xaa, 0x3b, 0xe6, 0x5d, 0x07, 0x3e, 0x2d, 0x87, 0x4b, 0x3e,
  0x4c, 0xd5, 0x3d, 0xbe, 0x22, 0x4f, 0x61, 0x3e, 0x45, 0x31, 0x49, 0x38,
  0x16, 0xc4, 0x71, 0x3b, 0x42, 0x52, 0x27, 0x3e, 0xb1, 0x1b, 0x97, 0xbc,
  0xc0, 0x3c, 0xaf, 0x3e, 0x60, 0x25, 0xb3, 0x3e, 0x3c, 0x84, 0xc7, 0xbd,
  0x83, 0xd6, 0x51, 0xbe, 0x6c, 0xfe, 0x07, 0xbf, 0xce, 0x27, 0x68, 0xbd,
  0x6f, 0x17, 0xc6, 0xbc, 0x92, 0x02, 0x79, 0x3e, 0x05, 0xde, 0xdd, 0x3e,
  0x0c, 0x07, 0x36, 0x3e, 0xc8, 0x69, 0x23, 0xbe, 0x95, 0x96, 0x48, 0xbe,
  0x0b, 0x09, 0xf9, 0xbe, 0x48, 0x79, 0x6f, 0xbe, 0xcb, 0xee, 0xc9, 0xbd,
  0xb5, 0x31, 0x1f, 0x3e, 0x0c, 0xb3, 0xea, 0xbd, 0x0d, 0x2d, 0x21, 0x3e,
  0x30, 0x1e, 0x28, 0xbe, 0x6d, 0x72, 0x98, 0xbd, 0x0d, 0xfc, 0xd2, 0xbe,
  0xf6, 0x1c, 0x4d, 0x3e, 0x52, 0xb9, 0x2d, 0x3e, 0x4e, 0xb3, 0x5f, 0x3d,
  0x4a, 0x2e, 0xc8, 0x3e, 0xdc, 0x2a, 0x47, 0x3e, 0xd8, 0x1b, 0x68, 0xbe,
  0x7e, 0xe3, 0x34, 0x3c, 0x81, 0x8d, 0xb0, 0xbe, 0xba, 0x7b, 0x65, 0x3e,
  0x69, 0xfe, 0xae, 0xbd, 0x26, 0xde, 0xff, 0xff, 0x10, 0x00, 0x00, 0x00,
  0x0a, 0x00, 0x00, 0x00, 0x1c, 0x00, 0x00, 0x00, 0x38, 0x00, 0x00, 0x00,
  0x04, 0x00, 0x00, 0x00, 0x10, 0x00, 0x00, 0x00, 0x04, 0x00, 0x00, 0x00,
  0x01, 0x00, 0x00, 0x00, 0x08, 0x00, 0x00, 0x00, 0x1a, 0x00, 0x00, 0x00,
  0x73, 0x65, 0x71, 0x75, 0x65, 0x6e, 0x74, 0x69, 0x61, 0x6c, 0x2f, 0x63,
  0x6f, 0x6e, 0x76, 0x32, 0x64, 0x5f, 0x31, 0x2f, 0x43, 0x6f, 0x6e, 0x76,
  0x32, 0x44, 0x00, 0x00, 0x9c, 0xdd, 0xff, 0xff, 0xa6, 0xde, 0xff, 0xff,
  0x04, 0x00, 0x00, 0x00, 0x80, 0x01, 0x00, 0x00, 0x41, 0x5c, 0x43, 0x3e,
  0xb9, 0x54, 0x36, 0xbe, 0x27, 0x50, 0x38, 0xbd, 0x36, 0x94, 0xd9, 0xbe,
  0xbe, 0x41, 0xcc, 0xbd, 0x96, 0x48, 0xdd, 0xbe, 0x8a, 0x76, 0xc0, 0x3e,
  0x43, 0xae, 0x91, 0x3e, 0x7b, 0x73, 0x0f, 0x3d, 0x1f, 0x98, 0x3e, 0x3e,
  0x8b, 0xfb, 0xe8, 0x3d, 0x6b, 0x6f, 0xd3, 0x3e, 0xc6, 0xdf, 0x85, 0x3d,
  0x2a, 0x84, 0x84, 0x3c, 0xc1, 0xd5, 0x83, 0xbc, 0x71, 0x69, 0xe1, 0x3e,
  0x6d, 0x19, 0xd6, 0x3e, 0xad, 0xc7, 0xa8, 0x3e, 0xbc, 0xc7, 0x50, 0xbe,
  0x7e, 0xde, 0x0c, 0xbd, 0x6c, 0xd4, 0x1b, 0xbe, 0x1f, 0xed, 0x6d, 0xbe,
  0xdc, 0x88, 0xc1, 0xbe, 0x11, 0x23, 0x3b, 0xbe, 0x56, 0xf5, 0x11, 0xbf,
  0xc6, 0x78, 0x85, 0xbe, 0xd2, 0x24, 0xd7, 0xbc, 0x00, 0x0c, 0x7d, 0xbd,
  0x55, 0xe9, 0x98, 0xbd, 0xc6, 0xba, 0x04, 0x3d, 0x2d, 0x20, 0xd3, 0x3e,
  0x9d, 0x1a, 0xf8, 0x3d, 0x0b, 0xca, 0xa9, 0x3d, 0xaf, 0x13, 0x5d, 0x3e,
  0xf6, 0xc8, 0x5a, 0x3e, 0x76, 0xa3, 0x9c, 0xbd, 0x00, 0x62, 0x2c, 0xbd,
  0xff, 0x3e, 0x4f, 0xbd, 0x46, 0x1e, 0x2d, 0x3d, 0x9d, 0xb4, 0x96, 0x3d,
  0xfc, 0xed, 0xb0, 0xbc, 0xba, 0xe4, 0x95, 0x3d, 0xd6, 0xb3, 0x2c, 0x3e,
  0xeb, 0x89, 0xfa, 0x3d, 0xf5, 0x49, 0xaf, 0x3d, 0x06, 0x45, 0x03, 0x3e,
  0xfe, 0x39, 0xd0, 0xbd, 0x37, 0x09, 0xda, 0xbd, 0x79, 0x46, 0x3a, 0x3e,
  0xa4, 0xfa, 0xa7, 0xbe, 0x3d, 0x71, 0x35, 0x3e, 0xef, 0xb3, 0x3b, 0xbe,
  0xf5, 0x09, 0x02, 0x3e, 0xe7, 0x14, 0x2e, 0x3e, 0xdd, 0x66, 0x47, 0xbd,
  0xf2, 0x1e, 0x4b, 0x3d, 0xb2, 0x61, 0xa8, 0xbd, 0xda, 0x77, 0x9f, 0xbd,
  0xa4, 0xa4, 0xee, 0x3d, 0xd1, 0xc7, 0x17, 0xbb, 0x90, 0xd6, 0x12, 0xbd,
  0x63, 0x6f, 0x54, 0xbd, 0x86, 0x5f, 0xc0, 0x3d, 0x04, 0x11, 0x61, 0xbd,
  0xde, 0x27, 0xf3, 0x3c, 0x6c, 0x7b, 0x68, 0x3d, 0x14, 0x8f, 0xbd, 0xbd,
  0xd3, 0xc7, 0xd3, 0x3d, 0x4a, 0x5e, 0x57, 0xbd, 0x0e, 0x73, 0x10, 0xbd,
  0x4f, 0xeb, 0xcd, 0x3d, 0xc2, 0xe9, 0x68, 0xbd, 0xa2, 0x26, 0x13, 0xbe,
  0x36, 0xf9, 0x76, 0xbd, 0x36, 0xd7, 0xb6, 0x3e, 0x79, 0xa6, 0xca, 0x3d,
  0xf4, 0xd9, 0x4c, 0xbe, 0x03, 0xd6, 0x38, 0xbe, 0xb6, 0xa3, 0x25, 0x3d,
  0xdf, 0x9e, 0xc8, 0x3d, 0xe7, 0x07, 0x16, 0xbe, 0x3f, 0x3a, 0x2e, 0x3d,
  0x3f, 0xbf, 0x09, 0xbe, 0xa5, 0x4b, 0x59, 0xbe, 0x24, 0xcd, 0xe2, 0x3d,
  0x84, 0x75, 0xe9, 0x3d, 0x39, 0xbc, 0xb1, 0x3d, 0x43, 0xc4, 0xc8, 0x3c,
  0xd0, 0xc1, 0xa4, 0x3e, 0x1d, 0xd0, 0x86, 0x3c, 0x28, 0x0f, 0xb8, 0xbd,
  0x3f, 0xa6, 0x06, 0xbe, 0xc0, 0xea, 0x19, 0xbe, 0x83, 0x68, 0x89, 0x3c,
  0x73, 0x34, 0x81, 0xbe, 0x89, 0x73, 0xa8, 0xbd, 0xfe, 0xdf, 0xff, 0xff,
  0x10, 0x00, 0x00, 0x00, 0x09, 0x00, 0x00, 0x00, 0x1c, 0x00, 0x00, 0x00,
  0x38, 0x00, 0x00, 0x00, 0x04, 0x00, 0x00, 0x00, 0x08, 0x00, 0x00, 0x00,
  0x04, 0x00, 0x00, 0x00, 0x03, 0x00, 0x00, 0x00, 0x01, 0x00, 0x00, 0x00,
  0x18, 0x00, 0x00, 0x00, 0x73, 0x65, 0x71, 0x75, 0x65, 0x6e, 0x74, 0x69,
  0x61, 0x6c, 0x2f, 0x63, 0x6f, 0x6e, 0x76, 0x32, 0x64, 0x2f, 0x43, 0x6f,
  0x6e, 0x76, 0x32, 0x44, 0x00, 0x00, 0x00, 0x00, 0x74, 0xdf, 0xff, 0xff,
  0x7e, 0xe0, 0xff, 0xff, 0x04, 0x00, 0x00, 0x00, 0xc0, 0x00, 0x00, 0x00,
  0x3e, 0x49, 0x02, 0xbf, 0x72, 0xd9, 0x3f, 0x3e, 0x76, 0x74, 0x11, 0x3e,
  0x01, 0x50, 0x09, 0x3e, 0x38, 0xa3, 0xc9, 0x3e, 0x5b, 0x21, 0x37, 0x3e,
  0xec, 0xc0, 0xb6, 0x3e, 0x23, 0xc6, 0xac, 0xbe, 0x6a, 0xa7, 0x80, 0xbe,
  0xd9, 0xbe, 0x15, 0x3e, 0x89, 0xa2, 0x89, 0x3e, 0x95, 0x7d, 0xb0, 0x3e,
  0x9c, 0x3d, 0x2e, 0x3e, 0x2f, 0x41, 0x8c, 0x3e, 0x78, 0x01, 0x9a, 0x3e,
  0xf3, 0xc1, 0xd9, 0x3d, 0x71, 0xf7, 0x45, 0xbe, 0xe4, 0xd3, 0x1d, 0x3e,
  0xe7, 0xfc, 0xbd, 0xbe, 0x61, 0x83, 0xcf, 0x3d, 0x0b, 0xc7, 0xb4, 0x3e,
  0x93, 0x76, 0x11, 0x3e, 0x49, 0xc7, 0xc1, 0x3e, 0x11, 0x54, 0x67, 0x3e,
  0xa0, 0x07, 0x59, 0xbe, 0x20, 0x82, 0x7f, 0x3e, 0x6f, 0x95, 0x77, 0x3e,
  0x5e, 0xce, 0xc0, 0x3e, 0xf1, 0xb4, 0xb6, 0x3d, 0xbc, 0x49, 0x9b, 0x3e,
  0x70, 0xaa, 0xbb, 0x3e, 0x7b, 0x36, 0x1f, 0x3e, 0x08, 0xfc, 0x1d, 0x3e,
  0x55, 0x11, 0x0a, 0x3e, 0x71, 0x5f, 0x1c, 0xbf, 0x27, 0x9d, 0xaf, 0x3d,
  0x51, 0xf9, 0xcc, 0xbc, 0xac, 0xd4, 0x77, 0x3e, 0x47, 0x0d, 0x45, 0x3d,
  0x77, 0x29, 0x66, 0xbe, 0x73, 0x06, 0x70, 0x3e, 0x63, 0x84, 0x5d, 0x3e,
  0x0b, 0x08, 0x57, 0x3e, 0xf7, 0x66, 0x88, 0x3e, 0x05, 0x6b, 0xcb, 0x3d,
  0x87, 0x5c, 0x81, 0x3e, 0xbf, 0xea, 0x97, 0x3e, 0x1e, 0xfe, 0x3f, 0x3e,
  0x16, 0xe1, 0xff, 0xff, 0x10, 0x00, 0x00, 0x00, 0x08, 0x00, 0x00, 0x00,
  0x14, 0x00, 0x00, 0x00, 0x30, 0x00, 0x00, 0x00, 0x02, 0x00, 0x00, 0x00,
  0x03, 0x00, 0x00, 0x00, 0x10, 0x00, 0x00, 0x00, 0x19, 0x00, 0x00, 0x00,
  0x73, 0x65, 0x71, 0x75, 0x65, 0x6e, 0x74, 0x69, 0x61, 0x6c, 0x2f, 0x64,
  0x65, 0x6e, 0x73, 0x65, 0x5f, 0x31, 0x2f, 0x4d, 0x61, 0x74, 0x4d, 0x75,
  0x6c, 0x00, 0x00, 0x00, 0x84, 0xe0, 0xff, 0xff, 0x8e, 0xe1, 0xff, 0xff,
  0x04, 0x00, 0x00, 0x00, 0x00, 0x1c, 0x00, 0x00, 0xbc, 0x15, 0x88, 0x3b,
  0x6e, 0x23, 0xaa, 0xbd, 0xa7, 0xf8, 0xb1, 0xbd, 0x6c, 0x0e, 0xde, 0x3d,
  0x51, 0x15, 0xf0, 0x3c, 0x1b, 0x14, 0x07, 0xbd, 0x2b, 0xb4, 0x3e, 0xbe,
  0xa9, 0xf6, 0x0e, 0x3e, 0xae, 0x44, 0xa3, 0x3d, 0x06, 0xcc, 0x06, 0x3e,
  0x03, 0x17, 0x1b, 0xbc, 0xcf, 0xcf, 0x2b, 0xbe, 0xce, 0x4a, 0x2d, 0xbe,
  0xa2, 0xee, 0x2b, 0xbe, 0x18, 0x8e, 0x2d, 0xbe, 0x4b, 0xe4, 0xec, 0xbd,
  0xd6, 0x63, 0x44, 0xbd, 0x40, 0xd4, 0x3a, 0xbe, 0x31, 0x9f, 0x5e, 0xbe,
  0xc6, 0xd0, 0x04, 0xbe, 0x34, 0x38, 0x46, 0xbd, 0xbc, 0xa8, 0x82, 0xbd,
  0xe3, 0x03, 0x42, 0xbd, 0xf6, 0x64, 0x22, 0xbe, 0xa0, 0x30, 0xfd, 0xbd,
  0x54, 0x56, 0x02, 0xbd, 0x65, 0xed, 0x1f, 0x3d, 0x5c, 0xfb, 0xd5, 0x3d,
  0xd7, 0x21, 0x5d, 0xbe, 0xd8, 0x01, 0xc3, 0xbe, 0xcb, 0xc0, 0x85, 0xbd,
  0x44, 0xcb, 0x9b, 0x3d, 0x08, 0xec, 0x4c, 0x3d, 0xfd, 0x70, 0xe2, 0x3d,
  0xbc, 0x28, 0x2a, 0xbe, 0x79, 0xf1, 0x36, 0x3e, 0x1a, 0x52, 0xb7, 0xbd,
  0x85, 0x98, 0x6b, 0x3d, 0x3a, 0xad, 0xa5, 0xbc, 0xf0, 0x14, 0x81, 0xbc,
  0x01, 0x8d, 0x93, 0xbd, 0xaa, 0xd5, 0x3c, 0xbe, 0x05, 0x4b, 0xa6, 0xbd,
  0x79, 0xf3, 0xf9, 0xbc, 0x9b, 0xda, 0x52, 0xbe, 0x98, 0xe6, 0xe1, 0xbe,
  0x7f, 0xe0, 0x1a, 0xbe, 0xb7, 0xad, 0x75, 0xbd, 0x80, 0x66, 0x3d, 0xbe,
  0x02, 0x85, 0x47, 0xbe, 0xa7, 0x2c, 0x03, 0x3e, 0x4f, 0x23, 0x26, 0xbd,
  0x58, 0xa9, 0x26, 0xbe, 0x02, 0xe3, 0x9f, 0x3d, 0x62, 0xde, 0xe9, 0x3d,
  0x4c, 0xab, 0x53, 0x3e, 0x2c, 0xd2, 0xf4, 0x3d, 0x99, 0x61, 0x77, 0xbd,
  0xc0, 0x0e, 0x2a, 0xbe, 0x0e, 0x5c, 0x6b, 0x3c, 0xa3, 0xf0, 0xdd, 0x3d,
  0xe8, 0xd9, 0x93, 0xbe, 0xe0, 0x47, 0x58, 0xbe, 0x0a, 0xde, 0x9f, 0x3d,
  0x28, 0x03, 0x32, 0x3e, 0xe6, 0xc4, 0xba, 0xbd, 0xe8, 0x6e, 0x63, 0xbe,
  0xa3, 0xcb, 0xff, 0xbc, 0xe4, 0x64, 0x77, 0xbe, 0x40, 0xc5, 0xb7, 0xbd,
  0x88, 0xdc, 0x59, 0x3d, 0xd8, 0x30, 0x60, 0x3d, 0x0b, 0x7d, 0x29, 0x3e,
  0xb8, 0xad, 0xa6, 0x3d, 0x23, 0xcd, 0xcf, 0xbd, 0xfb, 0x82, 0xdf, 0x3d,
  0x89, 0xfe, 0xc2, 0x3d, 0xa3, 0x24, 0x57, 0xbe, 0xd3, 0xaa, 0xd2, 0xbd,
  0x78, 0x55, 0x75, 0xbd, 0x1f, 0x7c, 0x11, 0x3e, 0x78, 0x4c, 0xc7, 0x3d,
  0x4c, 0x39, 0x4d, 0x3c, 0x0b, 0xff, 0xf5, 0xbd, 0xcf, 0xc6, 0xdc, 0x3d,
  0xaa, 0x25, 0x96, 0x3c, 0xdf, 0xf0, 0xa3, 0x3c, 0x22, 0x74, 0xf7, 0xbd,
  0x30, 0xca, 0x8f, 0xbb, 0x35, 0x1b, 0x0d, 0x3e, 0x8a, 0x0d, 0xde, 0xbc,
  0xfe, 0xd2, 0x09, 0x3e, 0x54, 0x61, 0x41, 0xbe, 0x5c, 0x80, 0xb8, 0xbe,
  0xf7, 0x93, 0x0b, 0xbe, 0xb5, 0x11, 0x84, 0xbe, 0xd3, 0x0a, 0x1f, 0x3e,
  0xe6, 0xe8, 0xd0, 0xbc, 0x08, 0x99, 0x10, 0x3b, 0x02, 0xf7, 0xb3, 0x3d,
  0x62, 0x6c, 0xf9, 0xbd, 0x5a, 0x13, 0xd9, 0xbd, 0x99, 0x41, 0x0c, 0x3e,
  0x0f, 0x70, 0xfa, 0x3c, 0x35, 0x23, 0x5b, 0xbd, 0x70, 0x41, 0x1a, 0xbe,
  0x73, 0x35, 0x0b, 0xbe, 0xe3, 0xc9, 0x91, 0xbd, 0x41, 0xf3, 0x5b, 0xbe,
  0xeb, 0x62, 0x78, 0xbe, 0xf1, 0xc2, 0x14, 0xbe, 0x4b, 0xa4, 0x2c, 0xbe,
  0xb3, 0x36, 0xc9, 0xbd, 0x2d, 0x43, 0x9b, 0x3e, 0x02, 0xbc, 0x91, 0xbe,
  0x18, 0x1f, 0x94, 0xbe, 0xdc, 0x4b, 0xe6, 0xbc, 0x32, 0x7f, 0x43, 0x3e,
  0x02, 0x62, 0xc7, 0x3d, 0xb1, 0xd5, 0xac, 0xbe, 0x64, 0x41, 0x50, 0x3e,
  0xd4, 0x25, 0x0d, 0x3e, 0xdb, 0xc7, 0xc6, 0x3e, 0x79, 0x1e, 0x0f, 0x3e,
  0x6d, 0x43, 0xfb, 0x3d, 0x5e, 0x01, 0x66, 0xbe, 0xa1, 0x3c, 0xb3, 0xbc,
  0x7f, 0x3c, 0x59, 0xbe, 0x3b, 0x83, 0x1b, 0xbe, 0x44, 0xe4, 0x8f, 0x3c,
  0x34, 0x08, 0x96, 0x3c, 0xa7, 0x15, 0x06, 0x3e, 0xa7, 0x3b, 0x59, 0xbc,
  0xc3, 0xd3, 0x30, 0x3e, 0x6f, 0x2b, 0x47, 0xbe, 0xc7, 0x14, 0x18, 0x3d,
  0x66, 0x23, 0x57, 0x3e, 0x28, 0xb8, 0xf2, 0xbd, 0x6b, 0xff, 0x74, 0x3e,
  0x69, 0x9d, 0x6d, 0x3e, 0x36, 0x1d, 0x27, 0x3e, 0xec, 0x26, 0xba, 0xbd,
  0xea, 0x3a, 0x0f, 0xbd, 0x7b, 0x7a, 0x6f, 0x3d, 0x7f, 0x23, 0x41, 0xbd,
  0x27, 0xa5, 0x13, 0xbd, 0x2c, 0x09, 0x82, 0x3e, 0xec, 0xa8, 0xb1, 0x3e,
  0x9c, 0xec, 0x70, 0x3e, 0xc1, 0xe1, 0x42, 0xbe, 0x5c, 0xf7, 0x44, 0xbe,
  0xc2, 0xa8, 0xc9, 0xbb, 0x3b, 0x8d, 0x5f, 0x3e, 0x24, 0xeb, 0x16, 0xbe,
  0x91, 0xc1, 0x93, 0x3d, 0x95, 0x7c, 0xce, 0x3e, 0xaa, 0xfe, 0x19, 0xbd,
  0x14, 0x30, 0x7a, 0xbd, 0xb8, 0x33, 0x35, 0x3c, 0x43, 0xad, 0x55, 0xbe,
  0x31, 0xe0, 0x1b, 0xbe, 0xda, 0x87, 0x78, 0xbe, 0x8c, 0x1d, 0x83, 0x3e,
  0xef, 0x26, 0xa8, 0xbd, 0xb2, 0xb7, 0xa4, 0x3e, 0x7e, 0x19, 0x4b, 0xbe,
  0x2f, 0xb5, 0x87, 0xbe, 0x16, 0x73, 0x16, 0x3e, 0x5d, 0x74, 0x07, 0x3e,
  0x0f, 0xfd, 0x45, 0xbe, 0xaf, 0xd0, 0xda, 0xbd, 0x88, 0xb3, 0xbe, 0x3d,
  0xd0, 0x73, 0x94, 0x3e, 0xda, 0x43, 0x1f, 0x3e, 0x23, 0x08, 0x7a, 0xbb,
  0x9d, 0x05, 0x02, 0xbe, 0xc7, 0xda, 0x3f, 0xbe, 0x07, 0x48, 0x4e, 0x3e,
  0x7a, 0x48, 0xec, 0xbb, 0x2d, 0x35, 0x8a, 0xbd, 0x8e, 0x58, 0xd8, 0x3d,
  0xf9, 0x56, 0x1b, 0x3e, 0x11, 0x16, 0x93, 0x3d, 0xf8, 0x33, 0x61, 0xbe,
  0x9e, 0xba, 0xa6, 0x3d, 0x30, 0x28, 0xf0, 0xbd, 0x32, 0xbf, 0x79, 0x3e,
  0x7a, 0x48, 0xf8, 0x3e, 0xe5, 0x6c, 0xaa, 0x3e, 0xab, 0xac, 0x38, 0xbd,
  0x16, 0x9e, 0x81, 0x3e, 0x57, 0x53, 0xc2, 0xbd, 0x76, 0x69, 0xd6, 0x3d,
  0x42, 0xfe, 0xc8, 0x3d, 0xdc, 0x55, 0x1f, 0x3e, 0x1b, 0xda, 0xac, 0x3e,
  0x34, 0xb1, 0xce, 0xbd, 0x43, 0x5c, 0xf1, 0x3d, 0xe5, 0x71, 0x27, 0xbd,
  0x74, 0xf2, 0xaa, 0xbc, 0x8a, 0x34, 0x6f, 0x3e, 0xee, 0xfe, 0x17, 0xbe,
  0xe3, 0xcf, 0xba, 0x39, 0xfb, 0xa9, 0xb6, 0x3e, 0x26, 0xa7, 0x90, 0xbb,
  0xc8, 0xd8, 0xa6, 0xbc, 0x91, 0x4f, 0x9e, 0xbd, 0xb2, 0x52, 0x2a, 0xbe,
  0xd0, 0x72, 0xd9, 0xbd, 0x5d, 0xd4, 0xac, 0xbe, 0x80, 0x6d, 0xda, 0xbc,
  0x51, 0x9f, 0x7f, 0x3e, 0xaa, 0xc6, 0x86, 0x3d, 0xc5, 0xe8, 0x40, 0x3d,
  0x3f, 0x10, 0x9a, 0xbc, 0xa8, 0xd8, 0x4d, 0xbe, 0x4c, 0xea, 0xde, 0x3d,
  0x54, 0x95, 0x0f, 0xbe, 0xb8, 0x0e, 0xcf, 0xbe, 0x27, 0x9d, 0xda, 0xbd,
  0x0b, 0x7e, 0x09, 0xbe, 0xc1, 0x14, 0x1d, 0xbe, 0xe4, 0x53, 0xac, 0x3c,
  0xc5, 0xef, 0x76, 0xbd, 0x2a, 0x33, 0x41, 0xbe, 0xf4, 0x8c, 0x71, 0x3e,
  0x47, 0xca, 0xb5, 0xbe, 0x04, 0x23, 0x7b, 0xbb, 0xe2, 0x30, 0x9a, 0x3d,
  0x84, 0xcb, 0x41, 0xbe, 0x44, 0xdd, 0xed, 0x3c, 0x34, 0x29, 0x20, 0xbe,
  0xbc, 0xbf, 0xd7, 0x3d, 0x25, 0x6d, 0x59, 0x3d, 0x25, 0xfd, 0xa5, 0x3e,
  0x76, 0xa1, 0xc4, 0x3e, 0xd0, 0x4b, 0x86, 0x3e, 0xf2, 0x1b, 0x97, 0xbe,
  0x4b, 0x96, 0xfb, 0xbc, 0x32, 0x1d, 0xc4, 0xbd, 0xfd, 0xc6, 0x0e, 0x3e,
  0x07, 0xaa, 0x13, 0x3e, 0xdd, 0xd2, 0x20, 0xbc, 0xa8, 0x74, 0xf1, 0xbc,
  0x98, 0xba, 0x5b, 0x3e, 0xb3, 0x2d, 0x60, 0xbe, 0x65, 0x99, 0x28, 0xbd,
  0x3a, 0xc5, 0x0f, 0xbd, 0xc1, 0x11, 0xb6, 0x3d, 0x40, 0x49, 0x34, 0xbc,
  0x18, 0xfa, 0xd6, 0x3d, 0x36, 0x35, 0x33, 0x3f, 0xb8, 0xe7, 0x10, 0xbc,
  0xec, 0x5b, 0xd7, 0xbe, 0x6d, 0xe4, 0xbd, 0x3d, 0x15, 0x6c, 0xae, 0xba,
  0xa6, 0x51, 0x87, 0xbd, 0x51, 0x7d, 0xc2, 0x3e, 0x4d, 0x68, 0x10, 0xbe,
  0xea, 0x2a, 0xd3, 0x3e, 0x15, 0x10, 0xd4, 0x3e, 0x00, 0x1a, 0x1b, 0xbd,
  0xb7, 0x57, 0xa3, 0x3c, 0x96, 0x4f, 0xe5, 0xbd, 0xfc, 0x9d, 0x01, 0x3e,
  0x43, 0x75, 0x81, 0xbd, 0xd0, 0xdf, 0xc4, 0xbb, 0xf0, 0xd0, 0x73, 0x3e,
  0x41, 0x34, 0x43, 0x3e, 0x95, 0x45, 0x8b, 0xbe, 0xde, 0x57, 0x41, 0x3c,
  0x75, 0x22, 0x55, 0x3d, 0x14, 0xe8, 0x41, 0x3e, 0x4b, 0xfd, 0x39, 0x3c,
  0xd9, 0xd1, 0xff, 0x3d, 0x56, 0xc7, 0x31, 0x3e, 0x1b, 0x5a, 0x9d, 0x3d,
  0xac, 0xa3, 0x19, 0xbc, 0x5a, 0xac, 0x93, 0x3d, 0x6b, 0xf3, 0x9b, 0xbd,
  0x05, 0x74, 0x3c, 0xbd, 0x5c, 0xe5, 0xda, 0x3e, 0x60, 0xad, 0x58, 0x3d,
  0x62, 0x1e, 0x05, 0x3f, 0x8d, 0x79, 0xaf, 0xbd, 0x72, 0xe7, 0x86, 0xbe,
  0x00, 0x12, 0xd6, 0x3d, 0x7a, 0x7a, 0x92, 0xbd, 0x74, 0xe4, 0xa1, 0x3d,
  0x1e, 0x9f, 0x2b, 0xbb, 0x37, 0xae, 0x59, 0xbd, 0x2a, 0x32, 0xb1, 0x3e,
  0x2c, 0xbc, 0x1d, 0x3e, 0x01, 0xed, 0x6e, 0xbe, 0xc8, 0x60, 0x9e, 0x3d,
  0x9b, 0xf7, 0x1e, 0x3d, 0x6d, 0xb1, 0xd8, 0x3d, 0x42, 0xda, 0x4b, 0x3e,
  0x51, 0x2b, 0x96, 0x3d, 0xed, 0xe6, 0x7e, 0x3e, 0x54, 0x87, 0x93, 0x3d,
  0x78, 0x39, 0xc4, 0xbd, 0x12, 0x9f, 0x3b, 0x3b, 0x38, 0x6b, 0x21, 0xbe,
  0xb5, 0xd1, 0x6a, 0xbe, 0x78, 0x93, 0x0d, 0x3d, 0xd8, 0x76, 0x8b, 0x3d,
  0xa0, 0x6e, 0x2d, 0x3e, 0xbc, 0xcc, 0x77, 0x3d, 0x91, 0x81, 0xcc, 0xbc,
  0x0d, 0x3a, 0x52, 0xbe, 0xe7, 0x80, 0x31, 0xbd, 0x83, 0x55, 0xee, 0x3d,
  0xe9, 0x9b, 0xea, 0x3d, 0xe5, 0xd6, 0x42, 0xbe, 0x86, 0xca, 0xed, 0x3e,
  0x28, 0xb1, 0x66, 0x3d, 0x46, 0xe8, 0xb5, 0xbe, 0x73, 0x5e, 0x83, 0xbd,
  0x68, 0xbf, 0x9e, 0xbd, 0xd1, 0xe8, 0x34, 0xbe, 0x28, 0xe9, 0x81, 0xbe,
  0x92, 0xbe, 0x52, 0xbe, 0x7d, 0x34, 0x62, 0x3e, 0x6d, 0x0c, 0x0f, 0x3d,
  0x2f, 0xc4, 0x21, 0xbe, 0x5f, 0x91, 0x0d, 0x3e, 0xba, 0x04, 0xf8, 0xbc,
  0x6e, 0xfc, 0x06, 0x3e, 0x14, 0x1b, 0xb6, 0x3e, 0x4b, 0x6d, 0x54, 0xbe,
  0x15, 0x44, 0xd2, 0x3c, 0xc5, 0xf6, 0xec, 0xbd, 0x76, 0x11, 0xd0, 0xbe,
  0x22, 0xd8, 0xe6, 0xbd, 0x5d, 0xe9, 0x49, 0x3d, 0xa1, 0x74, 0x40, 0xbe,
  0x69, 0x2b, 0x34, 0x3e, 0x9e, 0x9b, 0xda, 0xbe, 0x6c, 0x92, 0x45, 0xbb,
  0x10, 0xa5, 0x36, 0x3d, 0xdb, 0xd2, 0xf0, 0x3c, 0xd8, 0x25, 0xc0, 0xbd,
  0x7e, 0xed, 0x9b, 0xbe, 0x96, 0xc2, 0x26, 0x3e, 0xa7, 0x82, 0xae, 0xbe,
  0x44, 0x43, 0x67, 0x3e, 0x0d, 0x66, 0x46, 0x3f, 0xf7, 0x71, 0x2d, 0x3e,
  0x62, 0xa7, 0x8b, 0xbd, 0x27, 0xc5, 0x35, 0xbd, 0x26, 0xde, 0x5b, 0xbe,
  0x9a, 0x0a, 0xb0, 0xbe, 0x7b, 0xb4, 0x0f, 0x3e, 0x00, 0xf7, 0xcc, 0x3c,
  0x5a, 0x2c, 0x28, 0x3e, 0xb1, 0xc5, 0x12, 0x3e, 0xb8, 0xc3, 0x1e, 0xbc,
  0xa2, 0x5c, 0x33, 0xbe, 0x5c, 0x53, 0x9f, 0x3c, 0x13, 0x2c, 0x57, 0x3e,
  0x24, 0x8e, 0xef, 0xbd, 0xdf, 0x44, 0x92, 0x3e, 0xe5, 0x18, 0xc1, 0x3f,
  0x66, 0x5d, 0xa7, 0xbd, 0x9f, 0x2d, 0xc3, 0xbc, 0xb6, 0xc5, 0xb1, 0xbd,
  0x72, 0x1e, 0x58, 0xbe, 0xe2, 0xcc, 0xfa, 0xbd, 0x3b, 0x25, 0xda, 0x3e,
  0x5d, 0x0e, 0x6e, 0xbc, 0xbb, 0x9d, 0x74, 0x3e, 0xe2, 0x80, 0x95, 0x3e,
  0xe9, 0xf3, 0x39, 0xbe, 0xf1, 0xb6, 0x6c, 0xbe, 0xf8, 0xdb, 0x37, 0xbd,
  0x32, 0xb2, 0x26, 0x3e, 0x3e, 0xbc, 0x80, 0x3c, 0xcb, 0x50, 0xc6, 0x3c,
  0xb9, 0x69, 0xe8, 0x3f, 0x8a, 0xd3, 0x5b, 0x3e, 0x93, 0xf4, 0x2d, 0xbd,
  0x98, 0x5c, 0x70, 0x3e, 0x74, 0xb2, 0x42, 0xbd, 0x72, 0xbd, 0x10, 0xbe,
  0x96, 0xc6, 0x37, 0x3e, 0xef, 0x44, 0x2e, 0x3e, 0xea, 0x72, 0xb8, 0x3d,
  0x9d, 0x08, 0x0c, 0x3f, 0x85, 0x21, 0x04, 0x3e, 0x01, 0x59, 0xe7, 0xbc,
  0x7c, 0x7a, 0xc0, 0xbd, 0x25, 0xc9, 0xb5, 0x3d, 0x06, 0xaf, 0x59, 0xbe,
  0x51, 0x3e, 0x58, 0x3d, 0xc3, 0xd0, 0xcd, 0x3f, 0x5b, 0x0a, 0xb5, 0x3e,
  0xcd, 0x76, 0x97, 0x3d, 0xe2, 0x9e, 0x28, 0x3e, 0x90, 0xef, 0xce, 0xbe,
  0xf7, 0xe0, 0x41, 0xbe, 0xd3, 0x55, 0x3e, 0x3e, 0xb9, 0x53, 0x5c, 0xbe,
  0x51, 0x41, 0x8b, 0x3e, 0xd9, 0x10, 0x54, 0x3e, 0x4c, 0x41, 0xad, 0x3d,
  0x31, 0x30, 0x06, 0xbe, 0xe7, 0x70, 0x82, 0xbe, 0x10, 0x7f, 0x00, 0xbe,
  0x50, 0x50, 0xa9, 0x3d, 0xbf, 0x10, 0x49, 0x3e, 0x87, 0x0c, 0xd6, 0x3f,
  0x29, 0xa2, 0x85, 0x3e, 0xed, 0x19, 0x0f, 0x3d, 0xbc, 0xfb, 0xba, 0x3d,
  0x3c, 0xbc, 0x8f, 0xbe, 0xb8, 0x29, 0x1e, 0xbe, 0x08, 0xab, 0xae, 0x3e,
  0x7c, 0xc8, 0x94, 0x3c, 0xc0, 0xd5, 0x82, 0x3d, 0xe7, 0x4c, 0x59, 0x3d,
  0xa0, 0xa9, 0xf2, 0x3d, 0x7e, 0xbb, 0xd6, 0xbd, 0x5f, 0x44, 0xbb, 0xbd,
  0x1d, 0x0b, 0x32, 0xbe, 0x28, 0xe7, 0x65, 0x3e, 0xae, 0x9e, 0x99, 0x3e,
  0xd7, 0x52, 0xde, 0x3f, 0x9a, 0x80, 0x7a, 0x3d, 0x78, 0x10, 0x2d, 0xbd,
  0x6f, 0x4e, 0xba, 0x3d, 0xeb, 0x6c, 0xfd, 0xbe, 0x62, 0x8e, 0xf9, 0xbd,
  0xc1, 0x56, 0x89, 0x3c, 0xf1, 0x0c, 0xde, 0xbc, 0x13, 0x90, 0x22, 0xbe,
  0x35, 0x47, 0xb0, 0x3c, 0xc5, 0x89, 0x85, 0xbd, 0x2c, 0xb0, 0x37, 0xbe,
  0x69, 0x94, 0x25, 0xbe, 0x68, 0xeb, 0x94, 0xbe, 0x56, 0xb7, 0x7a, 0x3e,
  0x38, 0xe3, 0xf5, 0xbd, 0x69, 0x36, 0x9d, 0x3c, 0x34, 0x40, 0x0c, 0x3e,
  0x93, 0xb7, 0xac, 0x3c, 0x4e, 0xa8, 0x32, 0x3e, 0x0b, 0xd8, 0x90, 0xbe,
  0x60, 0x1c, 0x25, 0x3d, 0x4c, 0x07, 0x01, 0xbe, 0x5a, 0x0a, 0x93, 0xbd,
  0x00, 0xce, 0x06, 0xbe, 0x78, 0x96, 0x70, 0xbd, 0x01, 0xa9, 0x44, 0xbe,
  0xe4, 0x37, 0x06, 0x3d, 0xa1, 0x93, 0x1b, 0xbe, 0x4e, 0xd2, 0xa3, 0xbd,
  0x77, 0xea, 0x1f, 0xbe, 0xc7, 0xd5, 0xe7, 0xbd, 0xe6, 0x7b, 0x99, 0x3d,
  0x75, 0xf4, 0x15, 0xbe, 0x2a, 0x3f, 0x07, 0xbe, 0xc6, 0xfa, 0x79, 0x3d,
  0x11, 0x24, 0xfd, 0x3c, 0x1f, 0xca, 0xa8, 0x3c, 0xaa, 0x79, 0xc2, 0x3c,
  0xe1, 0xd1, 0x07, 0xbe, 0xc1, 0x30, 0x1d, 0x3e, 0x09, 0x7c, 0xe8, 0xbc,
  0x51, 0xc8, 0x88, 0xbe, 0x28, 0x60, 0xe7, 0x3d, 0x6b, 0xf8, 0x94, 0x3d,
  0x92, 0x6c, 0x85, 0x3d, 0x54, 0xc1, 0x61, 0xbe, 0x64, 0xdd, 0x6f, 0xbe,
  0xeb, 0xee, 0xdc, 0xbd, 0xfc, 0x33, 0xcc, 0x3d, 0x64, 0x1f, 0x05, 0xbe,
  0x80, 0x9b, 0x91, 0x3d, 0xb0, 0x46, 0x82, 0xbd, 0xdd, 0x65, 0x35, 0x3e,
  0x04, 0xce, 0xed, 0x3d, 0x82, 0xc9, 0xbf, 0x3a, 0xbc, 0xd1, 0x03, 0xbe,
  0x1d, 0x6a, 0x56, 0x3d, 0x15, 0xb2, 0x83, 0xbe, 0xf3, 0x54, 0xa9, 0xbd,
  0xdc, 0x97, 0xf9, 0x3d, 0x23, 0x90, 0xf0, 0x3d, 0x7c, 0x91, 0xc1, 0x3d,
  0xa6, 0xae, 0xa4, 0xbd, 0xe4, 0x81, 0x62, 0xbd, 0xa8, 0xf1, 0xdc, 0x3d,
  0xc0, 0xbd, 0x63, 0xbe, 0xb9, 0xaf, 0x13, 0xbe, 0xe3, 0xdb, 0xcd, 0xbd,
  0x6c, 0x5d, 0xda, 0xbd, 0x2a, 0xa3, 0x63, 0xbe, 0x1d, 0x6c, 0x64, 0xbe,
  0xea, 0x96, 0x9b, 0x3d, 0x20, 0x0f, 0x85, 0x3c, 0x9d, 0xdb, 0x25, 0xbe,
  0x41, 0xda, 0xb3, 0x3d, 0x9a, 0xb7, 0xa0, 0x3c, 0x0f, 0xda, 0x77, 0x3d,
  0xc0, 0xbd, 0xf7, 0xbd, 0x0c, 0xa3, 0x27, 0xbe, 0x1e, 0x6b, 0x3f, 0x3d,
  0xc2, 0x83, 0x3f, 0xbc, 0x48, 0xc0, 0x9b, 0xbe, 0x80, 0xff, 0x13, 0xbe,
  0x2f, 0xc1, 0x02, 0xbe, 0x50, 0xac, 0x4e, 0xbe, 0x75, 0x3d, 0x77, 0xbd,
  0x5d, 0x64, 0x1f, 0x3e, 0x98, 0x79, 0x08, 0xbe, 0xe9, 0x3a, 0x67, 0xbe,
  0x77, 0xac, 0x2a, 0xbb, 0xf3, 0xc0, 0x72, 0x3c, 0xf0, 0xc1, 0xa0, 0xba,
  0x27, 0x55, 0x35, 0xbe, 0xb5, 0x8f, 0x2c, 0x3e, 0x66, 0x51, 0x20, 0x3d,
  0xd6, 0x3e, 0x6e, 0xbe, 0x85, 0x65, 0xdb, 0x3d, 0x4a, 0xe5, 0x89, 0xbe,
  0x07, 0x16, 0x49, 0xbd, 0xd0, 0x37, 0x64, 0xbd, 0xb0, 0x4c, 0x24, 0x3e,
  0xfb, 0x44, 0x11, 0xbe, 0x39, 0x29, 0x11, 0x3e, 0x79, 0x70, 0x42, 0x3e,
  0xac, 0x25, 0x94, 0x3d, 0xcc, 0x8a, 0x51, 0xba, 0x5e, 0x78, 0x18, 0xbe,
  0xff, 0x0d, 0x38, 0xbe, 0xf3, 0x92, 0x1d, 0xbe, 0x5c, 0x57, 0x1a, 0x3c,
  0x89, 0xc4, 0x34, 0xbe, 0x29, 0x53, 0xd1, 0x3d, 0x5b, 0x14, 0xcf, 0xbd,
  0x0f, 0xed, 0x90, 0xbe, 0x20, 0x20, 0x5d, 0xbe, 0x97, 0xd5, 0x64, 0x3c,
  0x74, 0x8b, 0x0e, 0x3e, 0x18, 0x9f, 0x1c, 0xbe, 0x56, 0x10, 0x28, 0xbd,
  0x05, 0x99, 0x0d, 0xbe, 0x9b, 0x12, 0xdb, 0xbd, 0xf4, 0x63, 0x8d, 0x3b,
  0x52, 0x40, 0x8c, 0xbd, 0x10, 0xc5, 0xd7, 0x3d, 0x38, 0x61, 0x85, 0xbd,
  0xd0, 0x27, 0x06, 0x3e, 0xf9, 0x08, 0x93, 0x3d, 0xbf, 0xc4, 0x91, 0xbd,
  0x23, 0x19, 0x87, 0xbe, 0xf5, 0x86, 0x9b, 0xbe, 0x3d, 0x5c, 0x2f, 0xbe,
  0xac, 0xfc, 0x04, 0xbd, 0xb4, 0x61, 0x49, 0x3e, 0x04, 0x03, 0x61, 0xbe,
  0x40, 0x41, 0xe0, 0xbd, 0xf4, 0xf4, 0x07, 0x3e, 0xca, 0x6c, 0xd7, 0xbe,
  0x03, 0x24, 0x21, 0xbe, 0x3c, 0x07, 0xc9, 0x3e, 0xb6, 0xcc, 0x02, 0x3d,
  0xf5, 0x27, 0xae, 0xbd, 0xd5, 0x9b, 0x30, 0x3e, 0x37, 0xd4, 0xd3, 0x3c,
  0x7b, 0x40, 0x99, 0xbd, 0x6e, 0xbd, 0xd8, 0x3b, 0x4d, 0xde, 0x8f, 0xbe,
  0x7e, 0x64, 0x9a, 0xbb, 0xb7, 0xd2, 0x09, 0xbe, 0x5b, 0xa9, 0xfe, 0x3d,
  0x09, 0x1b, 0x45, 0xbe, 0x0d, 0x16, 0xa2, 0x3c, 0x2c, 0x4b, 0x09, 0x3f,
  0x38, 0x97, 0x83, 0x3c, 0xc5, 0xe3, 0xf7, 0x3d, 0x87, 0xbd, 0x9b, 0x3e,
  0xee, 0xc7, 0xf2, 0x3d, 0xc1, 0x16, 0xee, 0xbd, 0xf9, 0xbd, 0xdf, 0x3e,
  0x1d, 0xf7, 0x35, 0xbc, 0x43, 0x1a, 0x69, 0xbe, 0xc5, 0x58, 0x97, 0xbd,
  0x80, 0xe3, 0x6c, 0xbe, 0xc4, 0xda, 0x4e, 0xbe, 0x3b, 0x60, 0xb7, 0xbd,
  0x73, 0xb1, 0x6b, 0xbd, 0x0a, 0x63, 0x33, 0x3d, 0x2f, 0xd4, 0x8f, 0xba,
  0xd0, 0x0f, 0x89, 0x3c, 0x64, 0x98, 0x45, 0x3d, 0xb4, 0xd1, 0xbd, 0xbd,
  0x43, 0xea, 0x7d, 0x3e, 0xe4, 0x9d, 0x34, 0xbe, 0xec, 0x58, 0x31, 0x3e,
  0x3b, 0xa9, 0xaa, 0x3e, 0x7c, 0x09, 0x14, 0x3e, 0x4a, 0x22, 0x4e, 0x3d,
  0xff, 0x7e, 0xfa, 0x3c, 0xcf, 0xcb, 0x4f, 0xbe, 0x8e, 0x75, 0xd3, 0xbd,
  0x7a, 0x83, 0xbe, 0x3b, 0xaa, 0xd0, 0x61, 0xbe, 0x3d, 0x0a, 0x4a, 0xbe,
  0x5a, 0xf5, 0x44, 0x3e, 0x29, 0x8d, 0x92, 0x3e, 0x68, 0x0b, 0x48, 0xbe,
  0x27, 0x9e, 0x40, 0xbc, 0x54, 0xdd, 0xe4, 0x3d, 0x0d, 0x31, 0xe8, 0xbc,
  0x5c, 0xa6, 0xb8, 0x3d, 0x0f, 0x67, 0xac, 0x3e, 0xb1, 0x4e, 0x28, 0x3e,
  0xcd, 0x8a, 0x4f, 0x3c, 0xb5, 0x1d, 0x81, 0x3d, 0x88, 0xa7, 0xe3, 0xbd,
  0xcb, 0x2d, 0xf0, 0x3b, 0xeb, 0x58, 0xa4, 0x3d, 0x93, 0x77, 0x35, 0x3e,
  0x86, 0x2d, 0x80, 0x3c, 0x64, 0x38, 0xa6, 0x3d, 0x7c, 0xd6, 0x85, 0x3e,
  0xb7, 0x69, 0x5c, 0xbe, 0x77, 0xc0, 0xb5, 0xbc, 0x0f, 0xc0, 0xc0, 0x3d,
  0x44, 0xf0, 0x48, 0xbe, 0x06, 0xda, 0xc7, 0xbc, 0x62, 0xa1, 0xab, 0xbd,
  0xdd, 0x22, 0xf1, 0xbd, 0x87, 0xe3, 0x50, 0xbc, 0x64, 0x82, 0x11, 0x3d,
  0xb4, 0x87, 0x4c, 0x3c, 0x77, 0x58, 0x1b, 0xbd, 0x69, 0xa1, 0x85, 0xbe,
  0x22, 0xb9, 0x1b, 0xbe, 0x26, 0xbf, 0x0a, 0xbe, 0xc7, 0x86, 0xcf, 0x3d,
  0xe8, 0x3b, 0x65, 0x3e, 0xfd, 0xba, 0xa2, 0xbd, 0x8d, 0xb5, 0x3f, 0x3e,
  0x85, 0xad, 0xfa, 0x3d, 0x39, 0xaa, 0xef, 0xbd, 0xe4, 0xae, 0x46, 0x3d,
  0x8a, 0xa8, 0x93, 0x3e, 0x86, 0x6b, 0xce, 0x3c, 0x16, 0x23, 0xd2, 0xbd,
  0x7d, 0x8e, 0xdd, 0xbd, 0xfb, 0x08, 0xa4, 0xbe, 0x3c, 0x34, 0xdd, 0xbe,
  0x81, 0xad, 0x96, 0xbe, 0x7d, 0xa1, 0xe2, 0x3c, 0x62, 0x09, 0x42, 0xbd,
  0x7a, 0x43, 0xd1, 0x3d, 0xf6, 0x6b, 0x10, 0x3e, 0x7b, 0xf8, 0xe1, 0xbc,
  0x1a, 0x9d, 0x69, 0xbd, 0xfd, 0xd5, 0x7a, 0x3d, 0xa7, 0x27, 0xda, 0xbd,
  0x17, 0x72, 0x9c, 0xbd, 0x1c, 0xf3, 0x68, 0xbe, 0x4f, 0x62, 0x5f, 0x3e,
  0xa7, 0x1c, 0x8f, 0x3c, 0xac, 0xf5, 0x0b, 0xbd, 0x96, 0xcc, 0x1d, 0xbe,
  0x42, 0xf7, 0x37, 0x3d, 0x85, 0xc7, 0x8f, 0xbd, 0xaf, 0x74, 0xba, 0xbd,
  0xab, 0xaf, 0xda, 0xbd, 0x2d, 0xe4, 0x79, 0xbd, 0x00, 0xea, 0x81, 0x3d,
  0xa1, 0x7e, 0x1f, 0xbe, 0xc4, 0x89, 0xee, 0xbd, 0x57, 0x14, 0x19, 0xbe,
  0x29, 0x2e, 0xae, 0xbc, 0xf4, 0x88, 0x71, 0x3d, 0x37, 0xe9, 0x8d, 0xbe,
  0xf1, 0xdc, 0x47, 0xbe, 0x5a, 0x92, 0x7d, 0xbd, 0xdc, 0x68, 0xba, 0xbd,
  0x26, 0x18, 0xb2, 0xbe, 0xf4, 0x21, 0xe7, 0x3c, 0xf7, 0xae, 0x5d, 0xbe,
  0x7d, 0x83, 0x3c, 0xbe, 0xfc, 0x06, 0x93, 0x3d, 0xd9, 0xde, 0x43, 0xbe,
  0xc1, 0x62, 0xd9, 0xbd, 0x74, 0xff, 0x7d, 0xbe, 0x9d, 0x31, 0x69, 0xbe,
  0xda, 0xef, 0x3f, 0x3d, 0xd4, 0xeb, 0x35, 0xbd, 0x53, 0xe6, 0x18, 0xbe,
  0xb0, 0xe1, 0x7e, 0x3c, 0xbf, 0x98, 0xe7, 0xbc, 0x9a, 0x54, 0xfd, 0xbd,
  0x77, 0xde, 0x3e, 0x3b, 0x21, 0x4c, 0x56, 0xbe, 0xcf, 0x80, 0x32, 0xbe,
  0x14, 0xe6, 0xa5, 0x3d, 0x16, 0x58, 0x29, 0x3d, 0xf1, 0x32, 0x02, 0x3e,
  0x8f, 0xc7, 0x8a, 0x3d, 0xfc, 0x0a, 0xfd, 0xbd, 0x13, 0xc5, 0xbe, 0xbc,
  0x1c, 0xb9, 0x92, 0xbe, 0xcb, 0x55, 0xa7, 0x3c, 0x19, 0x48, 0x8c, 0x3d,
  0xc2, 0x98, 0x87, 0xbd, 0x46, 0x33, 0x1e, 0x3e, 0x46, 0x25, 0x98, 0xbd,
  0x30, 0xb3, 0xf8, 0x3d, 0x02, 0x7b, 0xc7, 0xbd, 0xcd, 0x09, 0x1f, 0xbe,
  0x22, 0xc1, 0xf3, 0x3d, 0xa9, 0x8b, 0xab, 0x3d, 0xf0, 0x6b, 0x8c, 0xbd,
  0xe5, 0x7d, 0xa6, 0x3d, 0x4e, 0x78, 0x0a, 0xbd, 0xc9, 0xc4, 0x08, 0x3b,
  0x4e, 0xa6, 0x4b, 0xbe, 0xed, 0xdd, 0xc4, 0x3c, 0x3a, 0x88, 0x11, 0x3e,
  0x12, 0xf4, 0x77, 0x3d, 0xd8, 0x22, 0x2c, 0xbe, 0xc2, 0xb6, 0x01, 0x3e,
  0xea, 0x36, 0x9c, 0xbd, 0xb0, 0x04, 0x1f, 0xbe, 0xb2, 0x4f, 0x2f, 0x3e,
  0x92, 0x01, 0x99, 0xbe, 0x3c, 0xe3, 0x60, 0x3d, 0x0f, 0x68, 0xed, 0xbd,
  0x71, 0xe4, 0x2a, 0xbe, 0xd7, 0xce, 0xd6, 0x3d, 0xd5, 0x60, 0xff, 0xbd,
  0xcd, 0xaa, 0xf7, 0x3d, 0x59, 0x16, 0x10, 0xbe, 0xb4, 0x42, 0x3c, 0xbc,
  0xe6, 0x1d, 0xeb, 0x3c, 0x5a, 0x61, 0xf4, 0x3d, 0x0e, 0xb7, 0xe4, 0x3d,
  0x3b, 0x16, 0x9a, 0xbd, 0xde, 0x67, 0x18, 0x3c, 0x8e, 0xf4, 0x00, 0x3e,
  0x4f, 0xbc, 0x63, 0xbe, 0x80, 0x03, 0xd9, 0xbe, 0x56, 0x7f, 0x32, 0xbe,
  0xfa, 0xbb, 0x3e, 0xbe, 0xbd, 0x20, 0x74, 0x3d, 0x11, 0x3b, 0xaa, 0xbd,
  0xd0, 0xa1, 0xce, 0xbd, 0x50, 0x41, 0x1d, 0xbe, 0x77, 0x27, 0xdf, 0xbc,
  0xc6, 0x42, 0xc0, 0x3c, 0xb3, 0x5a, 0x8b, 0xbe, 0xf7, 0x2e, 0xb8, 0xbc,
  0x86, 0x66, 0xc2, 0x3d, 0x43, 0x06, 0xb9, 0x3d, 0xb1, 0xe5, 0x12, 0xbe,
  0x31, 0x46, 0x5b, 0xbe, 0xe6, 0x3a, 0x5c, 0x3d, 0x8d, 0x09, 0x19, 0xbe,
  0xa3, 0xa2, 0x2c, 0xbe, 0xb0, 0x5f, 0x1c, 0x3d, 0x39, 0xc2, 0x80, 0x3d,
  0x0b, 0xdb, 0xee, 0x3c, 0x77, 0x86, 0xd0, 0x39, 0x79, 0x8f, 0x55, 0xbe,
  0xcd, 0xea, 0xe3, 0xbd, 0x79, 0xc6, 0x29, 0xbe, 0x28, 0x95, 0x27, 0x3e,
  0x30, 0x2e, 0x94, 0xbd, 0xd4, 0x7f, 0x6c, 0x3d, 0x2f, 0x1b, 0xce, 0x3d,
  0x3e, 0x77, 0xf9, 0xbd, 0x1d, 0x23, 0xae, 0x3d, 0x64, 0xbc, 0xa7, 0xbd,
  0xf3, 0x4a, 0xb4, 0xbe, 0x08, 0xec, 0x12, 0xbe, 0x84, 0x42, 0x6f, 0xbd,
  0xa5, 0x9d, 0x6d, 0x3e, 0x9c, 0x61, 0x98, 0xbd, 0xa7, 0x36, 0x69, 0xbb,
  0x12, 0x76, 0x0c, 0xbe, 0x14, 0x0f, 0xc2, 0xbd, 0x45, 0x91, 0x9b, 0xbe,
  0xc7, 0x48, 0xdf, 0xbd, 0xa6, 0xb0, 0x77, 0xbe, 0x00, 0xb1, 0x13, 0xbc,
  0x37, 0x60, 0x9c, 0xbe, 0x23, 0x25, 0x31, 0xbe, 0xaf, 0x45, 0xc4, 0xbb,
  0x1b, 0x92, 0x01, 0xbe, 0x3b, 0xe0, 0x97, 0xbd, 0xce, 0x01, 0x73, 0xbe,
  0xe3, 0xd9, 0xfb, 0x3c, 0x75, 0x44, 0x3d, 0xbd, 0xcb, 0x9f, 0x94, 0xbd,
  0x84, 0x26, 0xdc, 0xbd, 0xbf, 0x0e, 0xff, 0xbd, 0x3f, 0xa2, 0x69, 0xbe,
  0x58, 0xf1, 0x0e, 0xbe, 0xf9, 0x29, 0x3e, 0x3e, 0x7f, 0x2d, 0x54, 0xbe,
  0x53, 0x03, 0xfc, 0x3c, 0x7a, 0xb2, 0x4c, 0xbe, 0x59, 0xa0, 0xfa, 0xbd,
  0x2c, 0x7a, 0x88, 0x3c, 0xc8, 0x1b, 0x02, 0xbe, 0x0c, 0xb3, 0x3e, 0xbe,
  0x77, 0xe3, 0x80, 0xbe, 0x96, 0xfe, 0xf3, 0x3d, 0x0c, 0xeb, 0xe5, 0x3d,
  0x0d, 0x6a, 0xff, 0xbd, 0xd7, 0x6e, 0x60, 0xbe, 0x4f, 0xc0, 0x68, 0xbd,
  0x41, 0x19, 0x94, 0xbd, 0x6a, 0x26, 0x2a, 0x3d, 0x13, 0xac, 0x83, 0xbd,
  0x21, 0x04, 0x71, 0xbd, 0xe3, 0xa2, 0x23, 0x3c, 0x1c, 0x1c, 0x28, 0xbd,
  0x13, 0xfb, 0x64, 0xbd, 0x1b, 0xfa, 0x4f, 0xbe, 0x12, 0x88, 0x9f, 0xbd,
  0x8b, 0x8f, 0x10, 0xbe, 0x22, 0x99, 0x13, 0x3d, 0x94, 0x6a, 0xa8, 0xbc,
  0xc0, 0x42, 0x11, 0xbe, 0xbd, 0x6a, 0x45, 0xbd, 0x10, 0x1e, 0xfb, 0x3d,
  0x42, 0x52, 0xbc, 0xbd, 0x85, 0xd8, 0x18, 0xbe, 0x5d, 0xc3, 0xa7, 0xbe,
  0x13, 0xd2, 0xd0, 0xbc, 0x4c, 0x2c, 0x9c, 0xbd, 0x74, 0x34, 0x94, 0x3d,
  0x19, 0x2f, 0xb8, 0x3d, 0xc0, 0x1c, 0x51, 0xbd, 0xbc, 0x6d, 0x2f, 0x3e,
  0x2b, 0xa6, 0xa0, 0xbd, 0x4a, 0xd0, 0x90, 0xbe, 0x30, 0x8e, 0x56, 0xbe,
  0xc9, 0x53, 0x61, 0xbe, 0xa4, 0xba, 0xc8, 0x3d, 0x5f, 0xb7, 0x83, 0xbd,
  0x25, 0xac, 0xca, 0xbd, 0x57, 0x01, 0x76, 0xbe, 0x4b, 0x27, 0x1b, 0xbe,
  0xa1, 0x01, 0x02, 0xbe, 0xd9, 0x39, 0x26, 0xbc, 0x59, 0xec, 0xb0, 0xbd,
  0x9e, 0x30, 0x3b, 0xba, 0xf3, 0x14, 0x6f, 0xbd, 0x7e, 0x8f, 0xb3, 0x3d,
  0x2e, 0x77, 0x66, 0x3e, 0x7c, 0x09, 0xf1, 0x3d, 0xa6, 0xd4, 0x91, 0xbe,
  0x12, 0xab, 0x01, 0xbe, 0xb4, 0xd1, 0x92, 0xbd, 0xbd, 0xda, 0x6e, 0xbc,
  0x96, 0x98, 0x22, 0xbe, 0x16, 0xe7, 0x2b, 0xbe, 0x96, 0x7c, 0x34, 0xbe,
  0xcf, 0x50, 0x83, 0xbe, 0x34, 0x46, 0x1d, 0xbd, 0x93, 0x5d, 0x12, 0xbe,
  0xd1, 0xd7, 0xe9, 0xbc, 0x6f, 0x72, 0xe4, 0x3d, 0x01, 0xe9, 0x7c, 0xbe,
  0xab, 0xdf, 0x49, 0xbe, 0x42, 0x76, 0x1b, 0x3c, 0x00, 0x1c, 0x00, 0x3e,
  0xbe, 0x78, 0x5b, 0xbe, 0x88, 0x86, 0x64, 0xbe, 0x3b, 0xf3, 0xeb, 0x3d,
  0xa4, 0x5e, 0x45, 0xbe, 0xb8, 0xa3, 0x4f, 0x3d, 0xba, 0x79, 0xea, 0x3c,
  0xd9, 0x41, 0x7f, 0xbd, 0x6c, 0x9e, 0x36, 0x3d, 0xdb, 0x4a, 0x3b, 0xbd,
  0x57, 0x6f, 0x17, 0xbd, 0xba, 0x85, 0x4c, 0x3e, 0xeb, 0x44, 0x9e, 0x3e,
  0x38, 0x09, 0x1f, 0xbe, 0xd5, 0xa2, 0x3e, 0xbe, 0x66, 0x89, 0xc7, 0xbd,
  0xdc, 0x55, 0x57, 0x3d, 0xfb, 0x0c, 0xeb, 0xbd, 0x47, 0xe8, 0x10, 0x3e,
  0x40, 0x81, 0xd0, 0x3c, 0x3e, 0x0d, 0x3e, 0xbe, 0x86, 0x53, 0xf1, 0xbd,
  0xbb, 0x1e, 0x60, 0xbd, 0xdc, 0xfa, 0x31, 0xbe, 0x0e, 0xe0, 0x49, 0x3d,
  0x98, 0x23, 0x86, 0xbe, 0x1f, 0xba, 0x19, 0xbe, 0xcf, 0x3a, 0xa0, 0x3d,
  0xa1, 0x65, 0xd2, 0x3d, 0xda, 0x91, 0x0c, 0x3e, 0xee, 0xd8, 0x20, 0xbe,
  0x1e, 0x6c, 0xd0, 0xbd, 0xb8, 0xf9, 0x2d, 0xbe, 0x05, 0x80, 0x5e, 0xbe,
  0x46, 0x38, 0xda, 0xbd, 0x24, 0xf8, 0x1d, 0xbe, 0x66, 0x52, 0xd8, 0x3c,
  0x64, 0x42, 0x5e, 0xbe, 0x8e, 0x5b, 0xa6, 0xbd, 0xda, 0x63, 0x2c, 0x3d,
  0x0d, 0x6b, 0x90, 0x3d, 0x94, 0x89, 0x41, 0xbe, 0xa7, 0xff, 0x88, 0xbe,
  0xe8, 0x1e, 0x67, 0xbe, 0xa7, 0xc4, 0x5e, 0xbd, 0x0d, 0x05, 0x83, 0xbd,
  0xaf, 0x8e, 0x88, 0xbd, 0x8a, 0x0f, 0x00, 0x3e, 0x58, 0xac, 0x80, 0x3d,
  0x29, 0x13, 0x1f, 0xbe, 0xae, 0xe5, 0x9c, 0xbd, 0x9e, 0xb1, 0xc8, 0xbd,
  0x2f, 0xfd, 0x49, 0x3e, 0xab, 0x0c, 0xe9, 0xbd, 0x36, 0x5b, 0x28, 0xbe,
  0x50, 0x78, 0x72, 0xbe, 0x53, 0x55, 0xf8, 0x3d, 0x65, 0x27, 0xa8, 0x3a,
  0xa9, 0xfe, 0x3e, 0xbe, 0x23, 0x12, 0xaf, 0x39, 0xe4, 0xe0, 0x91, 0xbd,
  0x64, 0x54, 0x7c, 0xbe, 0xb6, 0x6f, 0x17, 0x3e, 0xb3, 0x02, 0x01, 0x3e,
  0x18, 0xf2, 0x3a, 0x3e, 0x91, 0x9e, 0x03, 0xbe, 0x36, 0x1c, 0xfc, 0xbd,
  0xf6, 0x27, 0xec, 0x3d, 0x9b, 0x78, 0xf6, 0xbd, 0x5c, 0x20, 0x5c, 0x3d,
  0xa2, 0x9c, 0x05, 0xbe, 0x30, 0x75, 0x07, 0xbc, 0xee, 0xf9, 0x94, 0xbd,
  0x5a, 0x28, 0x78, 0xbd, 0xd7, 0x4c, 0xbd, 0xbb, 0xd7, 0x10, 0x9a, 0x3d,
  0xd3, 0xfa, 0xbd, 0xbd, 0x5a, 0xb2, 0x8f, 0x3d, 0x37, 0x29, 0x3f, 0xbe,
  0xb9, 0x63, 0xef, 0xbd, 0xc8, 0x23, 0x13, 0x3e, 0xa5, 0x28, 0x32, 0xbe,
  0x95, 0xb8, 0x23, 0xbe, 0xe5, 0x1f, 0x10, 0xbd, 0x67, 0x96, 0xf8, 0xbd,
  0xb4, 0xfd, 0x89, 0xbd, 0x50, 0x3d, 0x30, 0xbe, 0x72, 0xf2, 0xd0, 0xbd,
  0xae, 0xf8, 0xf4, 0x3d, 0x35, 0xd3, 0x2a, 0xbe, 0xf7, 0xa6, 0x1a, 0xbe,
  0x94, 0xa3, 0x28, 0xbe, 0x30, 0x15, 0x08, 0xbe, 0xaf, 0xc6, 0x0a, 0x3e,
  0xce, 0x7a, 0x76, 0xbd, 0x05, 0x1a, 0xb6, 0x3d, 0x3c, 0x7b, 0x50, 0x3c,
  0x4f, 0x20, 0x06, 0xbe, 0x05, 0x26, 0x07, 0xbd, 0x8a, 0xf4, 0x1e, 0xbe,
  0x51, 0x74, 0x49, 0xbe, 0x04, 0xf1, 0x14, 0xbe, 0xa6, 0xb7, 0x19, 0xbe,
  0x4f, 0xcf, 0xfd, 0xbd, 0xc4, 0x11, 0x0a, 0x3c, 0xa3, 0xfb, 0x5d, 0xbd,
  0xaa, 0x84, 0x51, 0x3d, 0x2a, 0x92, 0xdd, 0x3d, 0xd6, 0x07, 0xe3, 0xbd,
  0x88, 0x6b, 0x06, 0x3e, 0x42, 0x7a, 0x95, 0x3d, 0xb1, 0xed, 0x6c, 0xbe,
  0x6a, 0xaf, 0x30, 0x3d, 0xbb, 0x63, 0x39, 0xbe, 0x70, 0x33, 0x68, 0xbd,
  0x7b, 0xa4, 0xd9, 0x3d, 0x2a, 0xc8, 0xee, 0x3d, 0x52, 0xa4, 0x8b, 0x3b,
  0xeb, 0xc1, 0x74, 0xbe, 0x63, 0x14, 0x6c, 0xbe, 0x03, 0xc5, 0x96, 0xbe,
  0x8b, 0xf7, 0xf4, 0x3c, 0xd2, 0x9d, 0x83, 0xbe, 0xec, 0x10, 0x00, 0xb8,
  0xb3, 0xe5, 0x46, 0xbe, 0x07, 0x12, 0x19, 0x3e, 0xd2, 0x1b, 0xb6, 0xbd,
  0x41, 0x96, 0xf7, 0x3d, 0x0d, 0x42, 0x34, 0xbe, 0x8f, 0x84, 0x9a, 0xbe,
  0x3d, 0xbf, 0x88, 0xbd, 0xda, 0x15, 0xc2, 0xbd, 0x4a, 0xee, 0xb3, 0x3e,
  0xdf, 0x1d, 0xa4, 0xbd, 0x7b, 0x4f, 0x68, 0x3d, 0xa9, 0xb2, 0xbd, 0x3d,
  0x5e, 0x16, 0x0c, 0x3d, 0xab, 0x58, 0x9c, 0xbd, 0xbb, 0x9b, 0xe5, 0x3d,
  0x8a, 0xa8, 0xb0, 0x3e, 0x88, 0xd9, 0x19, 0x3e, 0x5b, 0x89, 0xad, 0x3c,
  0xfb, 0xe1, 0x61, 0xbe, 0x36, 0x80, 0x21, 0x3c, 0x1f, 0x01, 0x12, 0xbd,
  0xdf, 0xad, 0x8e, 0x3d, 0x32, 0xa8, 0xb2, 0xbc, 0x4e, 0xff, 0xcb, 0x3d,
  0x60, 0xfa, 0x0a, 0xbe, 0xb7, 0x5a, 0x39, 0xbd, 0x1e, 0xf5, 0x43, 0xbe,
  0xaf, 0x11, 0xc4, 0x3d, 0x37, 0x36, 0x23, 0xbd, 0x03, 0x20, 0x66, 0x3e,
  0x8c, 0x05, 0x7e, 0x3d, 0x51, 0x1d, 0x2d, 0xbe, 0x48, 0x2d, 0xe7, 0xbd,
  0xc8, 0x2f, 0xbd, 0x3c, 0xe0, 0x80, 0x47, 0xbe, 0xd8, 0x77, 0x06, 0xbe,
  0xfb, 0x2c, 0x6c, 0xbb, 0x59, 0x6e, 0x16, 0x3d, 0xf6, 0x56, 0x11, 0xbe,
  0x7e, 0x5f, 0x18, 0xbe, 0x50, 0x54, 0x90, 0xbd, 0x53, 0xef, 0xf2, 0xbe,
  0x81, 0x29, 0x25, 0xbe, 0x3e, 0x75, 0x9f, 0xbc, 0x38, 0x50, 0x0a, 0xbf,
  0x81, 0x1a, 0x6f, 0xbc, 0xa6, 0x14, 0x66, 0x3d, 0x3b, 0xcc, 0xa9, 0xbe,
  0x8c, 0x36, 0xaf, 0xbd, 0xf5, 0xf1, 0x0d, 0x3e, 0x7c, 0xb8, 0x9c, 0xbc,
  0x13, 0xab, 0xda, 0xbd, 0x1e, 0x43, 0xb4, 0x3c, 0x95, 0xc8, 0xb4, 0x3c,
  0xd7, 0x62, 0x9e, 0xbe, 0xac, 0x90, 0x34, 0xbe, 0xea, 0xa5, 0x00, 0xbd,
  0x36, 0x90, 0x95, 0xbe, 0x3c, 0xb4, 0xb1, 0xbd, 0xb3, 0x87, 0xad, 0x3d,
  0x19, 0x98, 0x14, 0xbf, 0x99, 0x66, 0x95, 0x3c, 0x3c, 0x31, 0xa5, 0xbd,
  0x41, 0x49, 0x0e, 0xbd, 0x79, 0x7c, 0x3b, 0xbe, 0x63, 0xc0, 0x0e, 0xbe,
  0x37, 0x2f, 0x3d, 0x3d, 0x55, 0x45, 0x50, 0xbe, 0xc2, 0x13, 0x0c, 0xbe,
  0xa6, 0x54, 0xe4, 0xbb, 0x4b, 0xf7, 0xe0, 0xbe, 0x16, 0xe1, 0x5c, 0xbe,
  0x90, 0x42, 0x77, 0xbe, 0xf4, 0x00, 0x66, 0xbe, 0x2a, 0xa8, 0xaf, 0xbd,
  0xe8, 0x33, 0x45, 0x3d, 0x7d, 0x9e, 0x80, 0xbe, 0xc3, 0x0b, 0x0d, 0xbd,
  0xfc, 0x42, 0x27, 0xbd, 0xd8, 0x70, 0x24, 0xbe, 0x50, 0xe8, 0xda, 0x3c,
  0x09, 0x72, 0xa7, 0x3d, 0xa9, 0x64, 0x93, 0xbe, 0x2b, 0xfe, 0x6a, 0x3d,
  0xdd, 0x6b, 0xd5, 0xbd, 0x4d, 0x9c, 0xb4, 0xbc, 0xa2, 0xa0, 0xe5, 0xbc,
  0x60, 0xee, 0x93, 0xbd, 0x13, 0xa2, 0x9d, 0x3b, 0x55, 0xb5, 0x36, 0xbe,
  0x6f, 0x5c, 0x5a, 0x3e, 0xbd, 0x84, 0x82, 0xbc, 0xff, 0x1e, 0x8d, 0x3d,
  0x30, 0xd8, 0xb2, 0xbd, 0xdf, 0xe1, 0x9a, 0xbd, 0xc6, 0x49, 0xe9, 0x3e,
  0xc0, 0xa3, 0xc9, 0x3d, 0x8c, 0x5b, 0xec, 0x3c, 0x55, 0x60, 0xb0, 0xbe,
  0xc9, 0xcd, 0xe9, 0xbd, 0xac, 0x49, 0x72, 0xbe, 0xd7, 0x63, 0x86, 0x39,
  0xb6, 0x79, 0x14, 0xbd, 0x64, 0xc8, 0x9a, 0x3d, 0xd7, 0x40, 0xa7, 0x3c,
  0x85, 0xb8, 0x8d, 0xbd, 0x8f, 0x0d, 0x0e, 0x3e, 0x18, 0x9e, 0x3b, 0x3d,
  0x5a, 0x76, 0x8c, 0x3b, 0x54, 0xc8, 0x28, 0xbd, 0xe9, 0x3a, 0x95, 0xbd,
  0x15, 0xd6, 0x9b, 0x3d, 0xfa, 0xd5, 0x20, 0x3e, 0xd6, 0xba, 0xf2, 0xbd,
  0xad, 0xc3, 0x05, 0xbe, 0xff, 0xa8, 0xce, 0x3d, 0xd5, 0x26, 0xe8, 0xbd,
  0x4e, 0x58, 0x8d, 0xbc, 0xa4, 0x26, 0xbd, 0xbc, 0x6e, 0x65, 0x1c, 0x3d,
  0x90, 0x3c, 0x9c, 0xbe, 0x62, 0xb9, 0xa8, 0x3d, 0x94, 0x92, 0xb1, 0xbe,
  0xae, 0xdf, 0x59, 0xbd, 0x01, 0xa3, 0x97, 0x3d, 0xc4, 0x6c, 0x73, 0x3d,
  0x97, 0x89, 0xc3, 0xbd, 0xde, 0xb7, 0xf2, 0xbe, 0x16, 0xfa, 0x9e, 0x3e,
  0x04, 0xde, 0x6c, 0xbe, 0xbf, 0x47, 0x44, 0x3e, 0x76, 0xcf, 0xe2, 0x3e,
  0x30, 0xbc, 0x2f, 0x3e, 0xa3, 0xc6, 0x67, 0xbd, 0xf7, 0xea, 0x0b, 0x3e,
  0xa7, 0x06, 0xb9, 0xbe, 0x12, 0x34, 0xf5, 0xbe, 0xc7, 0x0d, 0x11, 0x3e,
  0xf1, 0x09, 0x0c, 0x3e, 0x2d, 0xca, 0xa1, 0xbe, 0xcb, 0xbf, 0x1f, 0x3d,
  0xc6, 0xd2, 0xed, 0xbd, 0xc1, 0x78, 0xa6, 0xbe, 0x5d, 0x46, 0xdf, 0x3d,
  0xe2, 0x6d, 0x19, 0x3e, 0xe6, 0x52, 0x72, 0xbd, 0xec, 0x63, 0x54, 0x3e,
  0x45, 0xcb, 0x26, 0x40, 0xbd, 0x1b, 0xcd, 0x3d, 0x4c, 0x8a, 0x09, 0xbd,
  0x81, 0x3a, 0x5f, 0x3d, 0xe5, 0xb9, 0xde, 0xbe, 0xba, 0xc8, 0x12, 0xbd,
  0x75, 0x52, 0xa3, 0x3e, 0xc4, 0xf7, 0x84, 0x3e, 0x74, 0xe5, 0x9a, 0xbe,
  0x02, 0xb6, 0xf6, 0x3e, 0x44, 0x67, 0x42, 0x3b, 0xa5, 0xfd, 0x96, 0xbe,
  0x32, 0xb0, 0x5c, 0x3d, 0x2e, 0xd4, 0x2c, 0x3e, 0x64, 0x28, 0x87, 0xbe,
  0x2b, 0x3c, 0xa5, 0x3d, 0xab, 0x0b, 0x0d, 0x40, 0xa1, 0x68, 0xd9, 0xb9,
  0xb9, 0xc3, 0x0e, 0xbd, 0xad, 0xd3, 0x4a, 0x3e, 0x5a, 0x64, 0x31, 0xbe,
  0xd5, 0x89, 0xb3, 0x3b, 0x29, 0x62, 0x75, 0x3e, 0x9e, 0x93, 0x45, 0x3e,
  0x05, 0x3c, 0x3b, 0xbd, 0x67, 0xd0, 0x96, 0x3e, 0x92, 0xfe, 0x1f, 0x3c,
  0xa4, 0xb9, 0x89, 0x3d, 0xe0, 0xc1, 0x97, 0xbd, 0xbb, 0x82, 0x89, 0x3c,
  0xdb, 0x3d, 0x0c, 0x3b, 0xab, 0x86, 0x37, 0x3e, 0xde, 0x5a, 0x27, 0x40,
  0x96, 0x0d, 0x53, 0x3e, 0xfc, 0x30, 0xfa, 0xbc, 0x09, 0xd1, 0x3b, 0x3e,
  0x7d, 0xc9, 0x9e, 0xbe, 0x5f, 0x2e, 0x45, 0xbc, 0x3d, 0x7a, 0x88, 0x3e,
  0x21, 0xa2, 0x37, 0xbd, 0xdf, 0x62, 0x2a, 0xbd, 0xc8, 0x42, 0xfc, 0x3d,
  0x97, 0xdd, 0x38, 0xbd, 0x87, 0x0e, 0xbb, 0x3d, 0x25, 0x3c, 0x01, 0xbf,
  0x15, 0x16, 0xb9, 0xbe, 0x4d, 0x4c, 0x8b, 0xbc, 0x55, 0xb0, 0x46, 0x3e,
  0xc9, 0x27, 0xa8, 0x3f, 0xbc, 0xe6, 0x1a, 0x3e, 0x87, 0x16, 0xb4, 0xbc,
  0xae, 0xa6, 0x0d, 0x3e, 0x63, 0x84, 0xef, 0xbe, 0x63, 0x36, 0x08, 0xbf,
  0xcf, 0x54, 0x8d, 0x3e, 0x97, 0xf0, 0x49, 0xbe, 0xaf, 0xaf, 0x09, 0xbd,
  0x14, 0xc4, 0x79, 0xbc, 0x8b, 0x43, 0x93, 0xbd, 0x02, 0xe8, 0x9f, 0x3d,
  0xc1, 0xca, 0xa9, 0xbe, 0x21, 0x5a, 0x2a, 0x3e, 0xd8, 0x94, 0x19, 0xbe,
  0xf2, 0x29, 0x23, 0x3e, 0x0a, 0xe0, 0x12, 0x40, 0x1f, 0x30, 0x80, 0x3e,
  0xdc, 0xc6, 0x7f, 0xbb, 0x7d, 0x32, 0x66, 0x3e, 0x68, 0x15, 0xc0, 0xbe,
  0x3d, 0x74, 0x21, 0xbe, 0x43, 0xc4, 0x2a, 0x3e, 0xdd, 0xc2, 0xc4, 0x3c,
  0xae, 0xe9, 0xc2, 0xbc, 0xd7, 0x87, 0x14, 0xbd, 0x03, 0x64, 0x23, 0x3d,
  0x34, 0x75, 0x05, 0xbe, 0xcd, 0x58, 0x26, 0xbe, 0xf7, 0x4d, 0x24, 0x3e,
  0xc9, 0x1d, 0x99, 0x3e, 0xee, 0xf2, 0xc0, 0x3c, 0x95, 0xdb, 0x59, 0xbe,
  0xe7, 0x24, 0x91, 0x3d, 0x7a, 0xa7, 0xa3, 0x3d, 0x6d, 0x2c, 0x04, 0x3e,
  0xc8, 0x41, 0x38, 0xbe, 0x79, 0x06, 0x23, 0x3e, 0x23, 0xff, 0xb2, 0x3d,
  0xd1, 0x20, 0xec, 0xbc, 0xde, 0x62, 0xa0, 0xbd, 0x24, 0x07, 0x15, 0x3e,
  0xed, 0x4d, 0x0f, 0x3d, 0x62, 0x8d, 0x0a, 0xbe, 0xe1, 0x01, 0x3b, 0x3e,
  0x7f, 0x18, 0x2e, 0x3e, 0xa9, 0xd1, 0x28, 0x3c, 0xec, 0xf9, 0x98, 0x3d,
  0x12, 0xe5, 0x7e, 0xbe, 0xef, 0xa4, 0xa8, 0x3d, 0xc0, 0x55, 0x0b, 0x3d,
  0x9a, 0x65, 0x92, 0x3d, 0x79, 0x4d, 0xa7, 0xbc, 0x26, 0x4d, 0x34, 0xbe,
  0x66, 0x96, 0x0c, 0x3e, 0xcc, 0xb9, 0xfe, 0xbd, 0x2d, 0x1c, 0x88, 0xbd,
  0x31, 0xfc, 0x01, 0x3d, 0x7f, 0x1f, 0x38, 0x3d, 0x56, 0x0f, 0xec, 0xbd,
  0xc1, 0x82, 0x44, 0x3e, 0x09, 0x6e, 0xf7, 0xbc, 0x93, 0x1a, 0x8f, 0xbd,
  0x08, 0x98, 0x10, 0x3c, 0x0e, 0x0a, 0x12, 0x40, 0xec, 0x05, 0xaa, 0x3c,
  0x3f, 0x48, 0xbd, 0xbc, 0xf1, 0xc5, 0x85, 0xbb, 0xee, 0xd6, 0xcb, 0xbd,
  0xf4, 0xf9, 0x17, 0xbe, 0x94, 0xdd, 0xae, 0x3d, 0xd5, 0x60, 0x46, 0x3d,
  0x2b, 0x19, 0xae, 0x3c, 0xd8, 0xfc, 0xf6, 0xbd, 0x95, 0x4e, 0x83, 0x3d,
  0x9d, 0x90, 0xfd, 0xbd, 0x2f, 0x63, 0x4f, 0xbe, 0x15, 0x3a, 0x10, 0xbd,
  0x61, 0x90, 0x43, 0xbe, 0x34, 0x41, 0xb4, 0xbd, 0x19, 0x85, 0x08, 0x40,
  0xfc, 0x7c, 0xf3, 0x3d, 0x36, 0xa6, 0xb8, 0xbc, 0x79, 0xfa, 0x97, 0xbd,
  0x77, 0xdd, 0xdf, 0xbe, 0x6a, 0xf6, 0x28, 0xbe, 0x36, 0x8f, 0x20, 0xbc,
  0xdb, 0x23, 0xa2, 0xbd, 0x50, 0x6f, 0x93, 0xbc, 0x64, 0x31, 0x8f, 0xbd,
  0xce, 0x5c, 0x11, 0xbc, 0xc8, 0x32, 0x9d, 0x3c, 0x20, 0x09, 0xc4, 0xbe,
  0x16, 0xe1, 0xdb, 0x3d, 0xc6, 0x77, 0xf9, 0xbd, 0x62, 0xd8, 0x7c, 0x3d,
  0xb9, 0xa4, 0x13, 0x40, 0xcc, 0x72, 0x86, 0x3d, 0x48, 0x06, 0x3c, 0xbd,
  0xde, 0x6e, 0xa8, 0xbd, 0x2f, 0x6c, 0xdb, 0xbe, 0x6a, 0x97, 0x32, 0xbe,
  0x35, 0xf6, 0x18, 0x3e, 0xc3, 0x69, 0x02, 0x3e, 0x6b, 0x2f, 0x7e, 0x3c,
  0x4e, 0x88, 0x33, 0x3d, 0x8c, 0x73, 0x94, 0xbc, 0x9b, 0x15, 0x98, 0xbd,
  0x07, 0x47, 0x85, 0x3e, 0x1c, 0x1f, 0xa1, 0x3e, 0x81, 0x32, 0x95, 0xbd,
  0xf3, 0xd1, 0x81, 0x3d, 0x4e, 0xe4, 0xf2, 0x3f, 0x2b, 0xa2, 0x8c, 0x3c,
  0x86, 0xfb, 0x4f, 0xbd, 0x8a, 0x16, 0x3e, 0xbd, 0x04, 0x0f, 0x2f, 0xbe,
  0x33, 0x20, 0x83, 0xbd, 0xef, 0x37, 0x3a, 0x3d, 0xe7, 0x56, 0xf9, 0x3d,
  0x0d, 0x4d, 0x03, 0xbe, 0xda, 0x23, 0xe5, 0x3d, 0x6c, 0xdd, 0x2e, 0xbd,
  0x2e, 0x2e, 0xb8, 0xbc, 0xf9, 0x79, 0x6d, 0x3e, 0x0b, 0xd5, 0x0d, 0x3e,
  0x19, 0xc0, 0x29, 0xbe, 0xb2, 0x82, 0x8f, 0x3b, 0xb5, 0xa3, 0xe2, 0x3f,
  0xec, 0x8a, 0xf1, 0x3d, 0x85, 0x3b, 0x2a, 0x3c, 0xd9, 0x48, 0x9c, 0x3d,
  0xe5, 0xe1, 0xf0, 0xbd, 0xb0, 0xef, 0xe1, 0xbc, 0x70, 0x48, 0x6f, 0x3d,
  0x01, 0x6c, 0x0c, 0x3e, 0x0b, 0xaf, 0x5a, 0xbe, 0x2d, 0x4f, 0x99, 0xbc,
  0x78, 0x5d, 0x2e, 0x3d, 0xf0, 0x1b, 0x0e, 0xbe, 0x6e, 0x3e, 0xa0, 0x3b,
  0xee, 0x37, 0x2c, 0x3e, 0x29, 0x4e, 0x39, 0x3d, 0x68, 0x0e, 0x37, 0x3c,
  0xac, 0x83, 0xf8, 0xbd, 0x3c, 0x80, 0x0f, 0x3d, 0xdf, 0x94, 0x37, 0x3d,
  0x47, 0xf4, 0x0d, 0x3e, 0xf0, 0x8d, 0x8a, 0x3a, 0x2b, 0x32, 0xd9, 0xbd,
  0xcc, 0xa6, 0xbb, 0x3e, 0xd0, 0x84, 0xe6, 0xbe, 0x6d, 0xbb, 0x1b, 0x3d,
  0x78, 0x53, 0x13, 0x3e, 0x21, 0x1a, 0x82, 0xbd, 0xf1, 0xea, 0xfc, 0xbd,
  0xf0, 0xd7, 0x41, 0xbe, 0x34, 0xb9, 0xfd, 0xbc, 0x00, 0xaa, 0x58, 0xbd,
  0x1a, 0x91, 0xba, 0x3e, 0x24, 0xa8, 0x8c, 0x3f, 0x50, 0x7b, 0x17, 0x3e,
  0x3f, 0x43, 0x48, 0xbe, 0x28, 0x0c, 0xe6, 0xbd, 0x5c, 0x59, 0xd6, 0xbd,
  0xc0, 0xae, 0xcf, 0xbd, 0x8e, 0xa6, 0x48, 0x3e, 0x77, 0x0e, 0x7f, 0x3e,
  0xe6, 0xd2, 0xf9, 0x3d, 0x67, 0x72, 0x44, 0xbc, 0x15, 0x3e, 0xca, 0x3d,
  0xf5, 0x49, 0xb1, 0xbe, 0x50, 0x26, 0x5d, 0x3d, 0xa2, 0x16, 0xa6, 0xbc,
  0xa7, 0x12, 0xb9, 0xbd, 0x7b, 0x78, 0x7f, 0x3e, 0x61, 0x7f, 0x2c, 0x40,
  0x7d, 0x25, 0xd3, 0xbb, 0x1c, 0x0c, 0x96, 0xbe, 0x87, 0xcb, 0x06, 0x3e,
  0x40, 0x56, 0xcc, 0xbe, 0x18, 0xd0, 0x7d, 0x3e, 0xe5, 0x72, 0x05, 0x3e,
  0xfb, 0xd6, 0x01, 0x3e, 0xfe, 0x87, 0x64, 0x3d, 0x1c, 0x1d, 0x14, 0x3f,
  0x84, 0x98, 0xce, 0xbd, 0xe1, 0x24, 0x44, 0xbe, 0xb5, 0x2a, 0x15, 0x3d,
  0x14, 0x39, 0x3a, 0xbd, 0x01, 0x59, 0xb3, 0xbd, 0x6f, 0xa2, 0xb1, 0xbd,
  0x9a, 0xb8, 0x62, 0x40, 0xbe, 0x8b, 0x0a, 0x3e, 0x8d, 0x7c, 0xd2, 0xbd,
  0x56, 0xef, 0x94, 0x3e, 0x39, 0x39, 0x3c, 0xbe, 0x45, 0xfe, 0x85, 0x3d,
  0x7a, 0xc1, 0x7c, 0x3e, 0x04, 0x2a, 0xb2, 0x3d, 0xe9, 0x44, 0x72, 0x3e,
  0xed, 0x87, 0x16, 0x3f, 0xe2, 0x8a, 0xfe, 0x3d, 0xf0, 0x35, 0x0b, 0xbe,
  0x19, 0x81, 0x63, 0x3e, 0xb8, 0x52, 0x87, 0xbe, 0xdb, 0x0f, 0x5e, 0x3d,
  0x0f, 0x59, 0x0e, 0x3e, 0x5a, 0x10, 0x6b, 0x40, 0x83, 0xdd, 0x60, 0x3e,
  0xfc, 0x98, 0x44, 0xbe, 0x3a, 0x25, 0xbe, 0x3e, 0x88, 0xe3, 0xe4, 0xbd,
  0x30, 0xee, 0x04, 0xbd, 0xb0, 0x72, 0xf2, 0x3e, 0xd2, 0x15, 0xa0, 0xbe,
  0x80, 0x7e, 0xb3, 0x3e, 0xff, 0xf6, 0xa6, 0x3e, 0xd9, 0xd5, 0x58, 0x3e,
  0xd4, 0xec, 0x0e, 0xbe, 0x70, 0xc7, 0xb1, 0xbd, 0x24, 0xe8, 0x85, 0xbe,
  0x55, 0x88, 0x88, 0xbd, 0xcd, 0x33, 0xa7, 0x3d, 0x4c, 0x5e, 0x91, 0x3f,
  0x12, 0xf8, 0xd0, 0x3e, 0xf0, 0xa7, 0xaf, 0xbd, 0xd9, 0xeb, 0x32, 0xbe,
  0xc4, 0x42, 0xbf, 0xbe, 0x0a, 0x7b, 0x02, 0xbe, 0x57, 0x49, 0xc8, 0x3e,
  0x37, 0x6e, 0x21, 0xbe, 0xd0, 0xae, 0x00, 0x3e, 0x63, 0xda, 0x61, 0x3c,
  0x37, 0xa2, 0x1a, 0x3e, 0x3c, 0xfc, 0x88, 0xbd, 0x15, 0x2b, 0x91, 0xbe,
  0xa0, 0x60, 0x26, 0xbd, 0xee, 0x7c, 0x19, 0xbc, 0x47, 0xbd, 0xa1, 0x3e,
  0x1b, 0x84, 0x72, 0x40, 0x3f, 0xd3, 0x91, 0x3e, 0xff, 0xff, 0x0c, 0xbe,
  0xac, 0x97, 0x30, 0x3d, 0x3b, 0x8f, 0x22, 0xbe, 0xdf, 0xdf, 0x3f, 0xbe,
  0x34, 0xe2, 0xb4, 0x3e, 0xf1, 0xc9, 0x71, 0xbe, 0x52, 0x6c, 0x6e, 0x3e,
  0x7d, 0x9f, 0x7a, 0xbc, 0x4d, 0xd4, 0xb6, 0xbd, 0x44, 0x69, 0x13, 0x3e,
  0xb1, 0x58, 0xad, 0x3d, 0x9c, 0x75, 0x62, 0xbe, 0xad, 0x0f, 0x8a, 0x3c,
  0x22, 0xb4, 0x2c, 0x3e, 0x04, 0xa2, 0x21, 0x3e, 0xd8, 0x2c, 0x1e, 0xbe,
  0xa0, 0xd8, 0x97, 0x3d, 0xe4, 0x25, 0xd8, 0x3d, 0xe6, 0x54, 0xe8, 0xbd,
  0x03, 0x50, 0x9d, 0x3e, 0xfd, 0xb6, 0x7c, 0xbd, 0x03, 0xfb, 0x32, 0x3e,
  0x5a, 0x32, 0x1b, 0xbf, 0x0f, 0x10, 0xd9, 0x3d, 0x88, 0x8c, 0xda, 0x3c,
  0x47, 0xb2, 0xa7, 0xbe, 0x9a, 0x2f, 0x86, 0x3e, 0x3d, 0x02, 0xd4, 0x3e,
  0x04, 0xf3, 0x27, 0xbe, 0x65, 0x7f, 0x58, 0xbe, 0x9c, 0x09, 0x83, 0xbe,
  0xe1, 0xea, 0x0f, 0x3d, 0x8d, 0x58, 0xb2, 0x3d, 0xe6, 0x07, 0x5a, 0xbc,
  0x5e, 0x2e, 0xfc, 0x3d, 0x25, 0x80, 0x96, 0x3d, 0xea, 0xdd, 0x93, 0x3c,
  0x58, 0xbd, 0xa1, 0xbc, 0x68, 0x6c, 0x87, 0x3e, 0x98, 0xdd, 0x3e, 0x3e,
  0x50, 0x74, 0x5e, 0x3e, 0x01, 0x61, 0x14, 0x3e, 0x2f, 0xbd, 0x92, 0x3e,
  0x9e, 0x20, 0x65, 0x3d, 0x10, 0x8e, 0xaf, 0xbd, 0x41, 0x61, 0x07, 0xbe,
  0x32, 0xc0, 0xa8, 0x3c, 0x8c, 0x6d, 0x85, 0x3d, 0x67, 0x2b, 0xdb, 0xbd,
  0x28, 0xa0, 0xb0, 0x3c, 0xcc, 0x4b, 0xe4, 0xbd, 0x8e, 0xb2, 0x94, 0xbc,
  0xd4, 0x9e, 0x88, 0xbe, 0x99, 0xab, 0xae, 0xbe, 0xfe, 0xf7, 0x89, 0x3d,
  0x3d, 0x45, 0xed, 0xbe, 0x95, 0xe9, 0x0f, 0x3e, 0xcc, 0x6e, 0x24, 0x3e,
  0xbf, 0xdc, 0x9b, 0xbe, 0x95, 0x58, 0xc7, 0xbe, 0x90, 0x5e, 0xb9, 0x3d,
  0x8f, 0x06, 0x89, 0xbe, 0x35, 0x1e, 0x58, 0xbd, 0x78, 0x54, 0x33, 0x3e,
  0xfd, 0xb1, 0x1e, 0xbe, 0x61, 0x0b, 0x1c, 0xbf, 0x62, 0x8d, 0x30, 0xbf,
  0x82, 0x73, 0x4e, 0xbe, 0x20, 0xae, 0x56, 0xbe, 0x71, 0x5e, 0xd9, 0xbe,
  0x35, 0x91, 0x04, 0x3e, 0x29, 0x30, 0x6f, 0xbf, 0x1f, 0xd6, 0x93, 0xbd,
  0x62, 0x27, 0xf7, 0xbd, 0x10, 0x8c, 0xcf, 0xbe, 0x5e, 0x4a, 0x2a, 0xbe,
  0x7e, 0x4f, 0x95, 0xbe, 0x41, 0x30, 0x6f, 0xbe, 0xb9, 0x43, 0x3b, 0x3e,
  0xf0, 0xcf, 0x6b, 0xbe, 0x18, 0x61, 0x48, 0xbe, 0xd0, 0x98, 0x21, 0xbf,
  0x20, 0xba, 0x16, 0xbf, 0x4f, 0xa7, 0x9f, 0xbe, 0x78, 0xce, 0xe2, 0x3d,
  0x3b, 0x9a, 0x0d, 0x3d, 0x52, 0x18, 0x27, 0x3e, 0x8f, 0xaf, 0x03, 0xbf,
  0x0a, 0x5d, 0x43, 0xbd, 0xd9, 0x46, 0xab, 0xbd, 0xce, 0x69, 0x94, 0x3e,
  0xb2, 0xe2, 0xa5, 0x3e, 0xb2, 0x30, 0x55, 0xbd, 0x63, 0x68, 0x31, 0xbe,
  0x1a, 0x92, 0x14, 0xbd, 0xf2, 0xc5, 0x73, 0x3c, 0x26, 0xd2, 0x3d, 0xbe,
  0x13, 0x13, 0x4c, 0xbe, 0x3b, 0xa6, 0x03, 0xbd, 0x21, 0x1f, 0x87, 0x3e,
  0x2e, 0xd6, 0xba, 0x3c, 0x4e, 0x45, 0x54, 0x3e, 0x77, 0x3d, 0x1d, 0xbe,
  0xe1, 0x11, 0xc4, 0x3a, 0x03, 0x96, 0x09, 0xbd, 0xdf, 0xbc, 0xfd, 0xbd,
  0x10, 0x21, 0xd5, 0x3e, 0xfd, 0x9d, 0xa2, 0x3e, 0x32, 0x4c, 0x13, 0xbe,
  0xf2, 0x7b, 0xd1, 0xbc, 0x1d, 0xec, 0x69, 0x3d, 0xbb, 0xb6, 0x01, 0x3c,
  0x40, 0x63, 0xd5, 0xbc, 0x1a, 0x5c, 0x81, 0x3b, 0x84, 0x51, 0x26, 0x3e,
  0x6e, 0xd3, 0x0b, 0xbe, 0x14, 0x0b, 0xb9, 0x3d, 0x2f, 0x0a, 0x41, 0xbd,
  0x2f, 0xda, 0x6b, 0x3e, 0x04, 0x31, 0x3d, 0x3d, 0x3f, 0xad, 0x13, 0x3e,
  0x24, 0xf9, 0xbf, 0xbd, 0x15, 0x0f, 0x88, 0xbc, 0x6d, 0x10, 0x29, 0xbe,
  0xb6, 0xbb, 0x3b, 0x3d, 0x60, 0xea, 0x06, 0x3d, 0x80, 0x3c, 0x3f, 0xbe,
  0xfd, 0x41, 0x5d, 0xbd, 0x9f, 0x10, 0x14, 0xbe, 0x91, 0x81, 0x87, 0xbd,
  0xc3, 0x6a, 0x31, 0xbe, 0x68, 0x9e, 0x98, 0xbe, 0x36, 0x53, 0xeb, 0x3c,
  0x36, 0x12, 0xd6, 0xbc, 0x28, 0x3b, 0x12, 0xbf, 0x3d, 0x41, 0xe7, 0xbe,
  0x47, 0x7e, 0x0a, 0xbf, 0x23, 0x30, 0x1d, 0xbf, 0x1b, 0x38, 0xd1, 0xbe,
  0xa9, 0x92, 0xb1, 0xbe, 0x67, 0x20, 0x62, 0xbd, 0x23, 0xd9, 0x11, 0xbe,
  0x24, 0xe8, 0xb5, 0xbc, 0x46, 0xb4, 0xb8, 0xbe, 0xac, 0xd0, 0x43, 0xbe,
  0xce, 0x58, 0x58, 0xbe, 0x45, 0x5e, 0xe6, 0xbe, 0x28, 0xfc, 0xd5, 0xbd,
  0x6f, 0x08, 0x2e, 0xbe, 0xfb, 0x96, 0x30, 0xbd, 0x00, 0x59, 0x67, 0xbd,
  0x21, 0xc0, 0xb7, 0xbd, 0x42, 0xb8, 0x21, 0xbf, 0x95, 0xf2, 0x87, 0xbe,
  0x1d, 0x9b, 0xdc, 0x3d, 0x99, 0x0c, 0x7d, 0xbe, 0xab, 0x2d, 0xeb, 0xbd,
  0xe1, 0x73, 0x58, 0xbd, 0x32, 0xe3, 0xe2, 0xbd, 0xbd, 0x4d, 0x57, 0xbe,
  0x4e, 0xa4, 0x0e, 0xbe, 0x06, 0xf4, 0x16, 0xbe, 0xf2, 0x94, 0x9f, 0xbe,
  0x5e, 0x61, 0x2e, 0xbd, 0x26, 0xff, 0x26, 0xbe, 0xe8, 0xe4, 0x1e, 0xbe,
  0x21, 0xc1, 0x0f, 0x3d, 0xb3, 0x58, 0xbf, 0xbe, 0x18, 0x2d, 0x09, 0xbf,
  0xac, 0xe2, 0x9b, 0xbe, 0x72, 0x49, 0x24, 0xbe, 0xae, 0x59, 0x8a, 0xbe,
  0x68, 0x17, 0x8a, 0xbe, 0xad, 0x27, 0x80, 0x3c, 0x55, 0x89, 0x4f, 0x3c,
  0x2e, 0xa0, 0xc3, 0xbd, 0xb4, 0xf1, 0xc9, 0xbd, 0x48, 0xf2, 0x8f, 0xbe,
  0xe9, 0x1c, 0x67, 0xbe, 0x31, 0x2d, 0x3f, 0xbd, 0x05, 0xca, 0x54, 0x3e,
  0x45, 0x15, 0x1e, 0xbe, 0x6b, 0x49, 0xee, 0xbe, 0x92, 0xce, 0xd7, 0xbe,
  0x3b, 0x7c, 0xf4, 0xbe, 0x13, 0xd3, 0x56, 0xbe, 0xee, 0x65, 0x88, 0xbd,
  0xce, 0x06, 0xc0, 0x3d, 0x9b, 0xc3, 0x62, 0x3c, 0xf9, 0xdb, 0x88, 0xbc,
  0x7e, 0xfc, 0x41, 0xbe, 0xed, 0x76, 0xee, 0xbd, 0x78, 0xbf, 0xda, 0xbd,
  0xad, 0xfc, 0xdd, 0xbe, 0xdd, 0x49, 0x04, 0xbf, 0x39, 0x47, 0x30, 0x3e,
  0x8d, 0x62, 0x33, 0x3e, 0x89, 0x5c, 0x73, 0x3e, 0x1c, 0x4b, 0x1f, 0xbd,
  0x4a, 0xb7, 0x2a, 0x3e, 0xdf, 0xca, 0x86, 0xbe, 0x37, 0x4d, 0x7e, 0xbe,
  0xfb, 0x6b, 0xb0, 0x3e, 0xd6, 0x9c, 0x3f, 0x3e, 0x6e, 0x67, 0xc1, 0xbe,
  0xe3, 0xf9, 0x34, 0xbe, 0x5b, 0xa2, 0x74, 0x3e, 0x13, 0xf0, 0xd6, 0xbc,
  0x53, 0xe6, 0x81, 0xbd, 0xb2, 0x68, 0x15, 0x3d, 0xbd, 0xf8, 0x0a, 0x3e,
  0x83, 0x28, 0x6f, 0x3d, 0xa6, 0x39, 0x8d, 0xbc, 0x30, 0xd5, 0x7b, 0x3e,
  0xda, 0x4b, 0xe8, 0x3c, 0x5b, 0xf8, 0x33, 0x3e, 0xc9, 0xea, 0x4a, 0x3e,
  0x30, 0xa2, 0xe8, 0x3c, 0x08, 0xae, 0x9c, 0x3e, 0xb4, 0x23, 0x23, 0x3e,
  0x37, 0x14, 0x3a, 0xbd, 0xb4, 0x8c, 0xf6, 0xbd, 0xd1, 0x04, 0xfb, 0xbd,
  0x6c, 0x38, 0x0c, 0x3c, 0x6f, 0x41, 0x63, 0x3d, 0xaf, 0xcb, 0x3d, 0xbc,
  0xac, 0xcd, 0x6c, 0x3d, 0xc4, 0xc0, 0x4c, 0x3d, 0x51, 0xde, 0x2b, 0xbd,
  0x50, 0x42, 0x83, 0x3e, 0xf4, 0x0f, 0xbb, 0x3e, 0xee, 0x7f, 0x38, 0x3d,
  0xfb, 0xcf, 0x50, 0x3e, 0xf6, 0xda, 0x91, 0x3d, 0x19, 0x5e, 0xd6, 0x3d,
  0x1a, 0xde, 0x8c, 0x3e, 0x5c, 0xc5, 0xdd, 0xbd, 0x1a, 0x84, 0xac, 0xbd,
  0xb5, 0xd6, 0x07, 0xbe, 0x89, 0x8f, 0xb2, 0x3c, 0x46, 0xb9, 0xab, 0x3d,
  0x96, 0x09, 0xfc, 0x3d, 0x10, 0xa6, 0x69, 0x3d, 0x0c, 0x9f, 0xed, 0xbe,
  0xcc, 0xf5, 0x04, 0xbe, 0x2f, 0x66, 0xc9, 0x3c, 0x1e, 0xf3, 0x0b, 0x3e,
  0x94, 0x74, 0xfd, 0xbe, 0xa3, 0x24, 0x89, 0x3c, 0xb1, 0x18, 0xa8, 0x3e,
  0x42, 0x0e, 0xd9, 0xbe, 0xb2, 0x3c, 0xe9, 0xbe, 0x42, 0xa1, 0xb8, 0x3d,
  0xca, 0xf7, 0x2b, 0xbe, 0xbc, 0xfc, 0x37, 0x3e, 0x29, 0x27, 0xfb, 0xbe,
  0xa4, 0xc7, 0x21, 0xbd, 0x6d, 0xaf, 0x59, 0xbe, 0xfb, 0x9f, 0x49, 0xbb,
  0xd2, 0x19, 0xa2, 0xbd, 0x10, 0xe4, 0x19, 0xbf, 0x81, 0xd8, 0x12, 0x3e,
  0x67, 0xd8, 0x80, 0x3e, 0x71, 0xad, 0x1b, 0xbe, 0x7f, 0x04, 0xad, 0x3c,
  0x1f, 0x37, 0xb1, 0x3e, 0x86, 0xdf, 0x2a, 0xbe, 0x73, 0x19, 0x2c, 0xbd,
  0xda, 0x49, 0x69, 0x3e, 0x47, 0x17, 0x23, 0xbe, 0x87, 0xdd, 0x72, 0xbe,
  0x1b, 0x04, 0x42, 0xbd, 0xda, 0x8c, 0x81, 0x3d, 0x75, 0x7b, 0x57, 0xbd,
  0x2c, 0xcf, 0xdf, 0x3e, 0xce, 0x40, 0x0c, 0x3e, 0xb8, 0x94, 0xc2, 0xbe,
  0xc4, 0xe6, 0xab, 0x3d, 0x71, 0x07, 0x28, 0x3e, 0x38, 0x93, 0x53, 0xbe,
  0x28, 0xe3, 0x82, 0x3d, 0x79, 0x4a, 0x6c, 0x3e, 0xbe, 0x82, 0x30, 0x3e,
  0xdd, 0x6a, 0x8e, 0xbd, 0xda, 0x0d, 0xc7, 0x3e, 0x95, 0x64, 0x0a, 0x3e,
  0xf7, 0xf4, 0xa6, 0xbe, 0xb8, 0x48, 0xf5, 0xbb, 0xea, 0xaa, 0x38, 0x3d,
  0x6f, 0xb7, 0x10, 0xbe, 0x6e, 0x1f, 0xcf, 0x3e, 0x65, 0xf7, 0x53, 0x3e,
  0xd4, 0x41, 0x0a, 0xbe, 0x16, 0xc0, 0x99, 0x3d, 0xe4, 0x1e, 0x03, 0x3e,
  0x4a, 0x3f, 0xc9, 0xbb, 0x9e, 0xdb, 0x28, 0xbd, 0x78, 0xbe, 0x3c, 0x3c,
  0x6c, 0x27, 0x0f, 0x3d, 0x89, 0x2d, 0x3e, 0xbe, 0x41, 0x78, 0x0e, 0x3e,
  0x3c, 0x4b, 0xf8, 0xbd, 0xf2, 0x52, 0xba, 0xbe, 0x4a, 0xae, 0x08, 0xbe,
  0x83, 0xf7, 0x92, 0x3c, 0xff, 0xb4, 0x26, 0xbd, 0xb3, 0x04, 0x7b, 0x3e,
  0x37, 0x6b, 0x63, 0x3d, 0x1f, 0x16, 0xcd, 0xbe, 0x45, 0x8f, 0xf5, 0x3c,
  0xd4, 0xe4, 0xff, 0x3d, 0x01, 0xd5, 0x30, 0xbe, 0xc8, 0x0b, 0x24, 0x3d,
  0x15, 0x93, 0xa4, 0x3d, 0x79, 0xbe, 0x01, 0x3e, 0xcd, 0x3a, 0x8c, 0xbe,
  0x11, 0x8b, 0x81, 0x3e, 0x2f, 0x9e, 0x74, 0xbe, 0xb2, 0x24, 0xbb, 0xbe,
  0x81, 0x35, 0x42, 0xbe, 0xb1, 0xc6, 0x8f, 0x3d, 0x1f, 0x7f, 0xde, 0xbd,
  0x03, 0x7f, 0xab, 0x3e, 0x4a, 0xb8, 0x66, 0x3e, 0x93, 0x1d, 0xf6, 0xbe,
  0x5f, 0xe4, 0x06, 0xbd, 0xd3, 0x25, 0x8c, 0x3e, 0xf5, 0x68, 0x08, 0xbf,
  0x8a, 0x36, 0xbf, 0x3c, 0xf5, 0x31, 0x73, 0x3d, 0x02, 0x18, 0x82, 0x3e,
  0x86, 0xb2, 0x91, 0xbe, 0x2e, 0x7b, 0x81, 0x3e, 0x64, 0xf6, 0x15, 0xbe,
  0x62, 0x2f, 0x8b, 0xbe, 0x08, 0x51, 0xa6, 0xbe, 0x34, 0x2a, 0xda, 0x3c,
  0xbc, 0x75, 0x04, 0xbf, 0xf9, 0x25, 0x61, 0x3e, 0x04, 0x03, 0xd9, 0x3c,
  0x6b, 0xf1, 0x40, 0xbe, 0x0a, 0xa8, 0x38, 0xbe, 0xdd, 0xb9, 0x8f, 0x3e,
  0x25, 0x33, 0xf5, 0xbc, 0x67, 0x48, 0xd0, 0xbb, 0xa6, 0xf8, 0xcd, 0xbd,
  0x13, 0x3e, 0xd7, 0x3b, 0xeb, 0x41, 0xf9, 0xbd, 0xfd, 0xc3, 0xc4, 0xbe,
  0xbb, 0x18, 0x91, 0xbc, 0x82, 0x9d, 0x9e, 0x3e, 0x47, 0x32, 0x11, 0xbe,
  0x75, 0xa5, 0x88, 0xbb, 0xf4, 0x9f, 0xa1, 0xbe, 0x21, 0xcd, 0xfc, 0x3c,
  0x66, 0xfd, 0xff, 0xff, 0x10, 0x00, 0x00, 0x00, 0x07, 0x00, 0x00, 0x00,
  0x14, 0x00, 0x00, 0x00, 0x2c, 0x00, 0x00, 0x00, 0x02, 0x00, 0x00, 0x00,
  0x10, 0x00, 0x00, 0x00, 0x70, 0x00, 0x00, 0x00, 0x17, 0x00, 0x00, 0x00,
  0x73, 0x65, 0x71, 0x75, 0x65, 0x6e, 0x74, 0x69, 0x61, 0x6c, 0x2f, 0x64,
  0x65, 0x6e, 0x73, 0x65, 0x2f, 0x4d, 0x61, 0x74, 0x4d, 0x75, 0x6c, 0x00,
  0xd0, 0xfc, 0xff, 0xff, 0xda, 0xfd, 0xff, 0xff, 0x04, 0x00, 0x00, 0x00,
  0x08, 0x00, 0x00, 0x00, 0xff, 0xff, 0xff, 0xff, 0x70, 0x00, 0x00, 0x00,
  0x00, 0x00, 0x0e, 0x00, 0x18, 0x00, 0x08, 0x00, 0x07, 0x00, 0x0c, 0x00,
  0x10, 0x00, 0x14, 0x00, 0x0e, 0x00, 0x00, 0x00, 0x00, 0x00, 0x00, 0x02,
  0x10, 0x00, 0x00, 0x00, 0x06, 0x00, 0x00, 0x00, 0x10, 0x00, 0x00, 0x00,
  0x2c, 0x00, 0x00, 0x00, 0x01, 0x00, 0x00, 0x00, 0x02, 0x00, 0x00, 0x00,
  0x18, 0x00, 0x00, 0x00, 0x73, 0x65, 0x71, 0x75, 0x65, 0x6e, 0x74, 0x69,
  0x61, 0x6c, 0x2f, 0x66, 0x6c, 0x61, 0x74, 0x74, 0x65, 0x6e, 0x2f, 0x43,
  0x6f, 0x6e, 0x73, 0x74, 0x00, 0x00, 0x00, 0x00, 0x38, 0xfd, 0xff, 0xff,
  0x42, 0xfe, 0xff, 0xff, 0x04, 0x00, 0x00, 0x00, 0x0c, 0x00, 0x00, 0x00,
  0x94, 0x0f, 0x98, 0xbf, 0x98, 0xe1, 0x86, 0xc0, 0x35, 0x61, 0x3f, 0x40,
  0x26, 0xfe, 0xff, 0xff, 0x10, 0x00, 0x00, 0x00, 0x05, 0x00, 0x00, 0x00,
  0x10, 0x00, 0x00, 0x00, 0x44, 0x00, 0x00, 0x00, 0x01, 0x00, 0x00, 0x00,
  0x03, 0x00, 0x00, 0x00, 0x32, 0x00, 0x00, 0x00, 0x73, 0x65, 0x71, 0x75,
  0x65, 0x6e, 0x74, 0x69, 0x61, 0x6c, 0x2f, 0x64, 0x65, 0x6e, 0x73, 0x65,
  0x5f, 0x31, 0x2f, 0x42, 0x69, 0x61, 0x73, 0x41, 0x64, 0x64, 0x2f, 0x52,
  0x65, 0x61, 0x64, 0x56, 0x61, 0x72, 0x69, 0x61, 0x62, 0x6c, 0x65, 0x4f,
  0x70, 0x2f, 0x72, 0x65, 0x73, 0x6f, 0x75, 0x72, 0x63, 0x65, 0x00, 0x00,
  0xa8, 0xfd, 0xff, 0xff, 0xb2, 0xfe, 0xff, 0xff, 0x04, 0x00, 0x00, 0x00,
  0x40, 0x00, 0x00, 0x00, 0xaf, 0x63, 0xea, 0xbd, 0x25, 0x72, 0x1f, 0x3e,
  0x77, 0x4e, 0x41, 0xbe, 0x02, 0x13, 0xe6, 0xbd, 0xdf, 0xca, 0x3c, 0xbe,
  0x2d, 0xd7, 0x9a, 0xbc, 0xbb, 0xd2, 0x8f, 0xbe, 0x0e, 0xcb, 0x6e, 0xbe,
  0x6c, 0x70, 0x28, 0xbe, 0x10, 0xd2, 0xf8, 0x3f, 0xac, 0x36, 0xad, 0x3e,
  0x3a, 0x48, 0x2d, 0xbf, 0x17, 0x23, 0x44, 0xbd, 0x92, 0xc4, 0xdc, 0xbf,
  0x2b, 0x11, 0x5c, 0xbf, 0x59, 0x43, 0x56, 0x40, 0xca, 0xfe, 0xff, 0xff,
  0x10, 0x00, 0x00, 0x00, 0x04, 0x00, 0x00, 0x00, 0x10, 0x00, 0x00, 0x00,
  0x44, 0x00, 0x00, 0x00, 0x01, 0x00, 0x00, 0x00, 0x10, 0x00, 0x00, 0x00,
  0x30, 0x00, 0x00, 0x00, 0x73, 0x65, 0x71, 0x75, 0x65, 0x6e, 0x74, 0x69,
  0x61, 0x6c, 0x2f, 0x64, 0x65, 0x6e, 0x73, 0x65, 0x2f, 0x42, 0x69, 0x61,
  0x73, 0x41, 0x64, 0x64, 0x2f, 0x52, 0x65, 0x61, 0x64, 0x56, 0x61, 0x72,
  0x69, 0x61, 0x62, 0x6c, 0x65, 0x4f, 0x70, 0x2f, 0x72, 0x65, 0x73, 0x6f,
  0x75, 0x72, 0x63, 0x65, 0x00, 0x00, 0x00, 0x00, 0x4c, 0xfe, 0xff, 0xff,
  0x56, 0xff, 0xff, 0xff, 0x04, 0x00, 0x00, 0x00, 0x40, 0x00, 0x00, 0x00,
  0x21, 0x39, 0x79, 0xbf, 0x62, 0x76, 0xb8, 0x3f, 0x30, 0xda, 0x4d, 0xbd,
  0x7c, 0x42, 0xb0, 0x3f, 0xd4, 0x4f, 0xf5, 0x3e, 0x94, 0xcd, 0xf6, 0xbd,
  0x4f, 0xcd, 0xd9, 0xbd, 0x34, 0xab, 0xd2, 0xbf, 0x44, 0xef, 0x77, 0xbf,
  0x45, 0xb6, 0x32, 0x3d, 0x1a, 0xc9, 0x3a, 0xbf, 0xc0, 0x56, 0x8d, 0x40,
  0xd1, 0x21, 0xde, 0xbf, 0x86, 0xa7, 0x3f, 0x3f, 0x70, 0x9a, 0x04, 0xc0,
  0xa7, 0x8d, 0x88, 0xbb, 0x6e, 0xff, 0xff, 0xff, 0x10, 0x00, 0x00, 0x00,
  0x03, 0x00, 0x00, 0x00, 0x10, 0x00, 0x00, 0x00, 0x48, 0x00, 0x00, 0x00,
  0x01, 0x00, 0x00, 0x00, 0x10, 0x00, 0x00, 0x00, 0x33, 0x00, 0x00, 0x00,
  0x73, 0x65, 0x71, 0x75, 0x65, 0x6e, 0x74, 0x69, 0x61, 0x6c, 0x2f, 0x63,
  0x6f, 0x6e, 0x76, 0x32, 0x64, 0x5f, 0x31, 0x2f, 0x42, 0x69, 0x61, 0x73,
  0x41, 0x64, 0x64, 0x2f, 0x52, 0x65, 0x61, 0x64, 0x56, 0x61, 0x72, 0x69,
  0x61, 0x62, 0x6c, 0x65, 0x4f, 0x70, 0x2f, 0x72, 0x65, 0x73, 0x6f, 0x75,
  0x72, 0x63, 0x65, 0x00, 0x04, 0x00, 0x06, 0x00, 0x04, 0x00, 0x00, 0x00,
  0x00, 0x00, 0x06, 0x00, 0x08, 0x00, 0x04, 0x00, 0x06, 0x00, 0x00, 0x00,
  0x04, 0x00, 0x00, 0x00, 0x20, 0x00, 0x00, 0x00, 0x3d, 0x20, 0x04, 0xbf,
  0xea, 0x6a, 0xb9, 0xbf, 0xfd, 0x05, 0xd8, 0xbf, 0xa7, 0x3c, 0xa3, 0xbf,
  0x30, 0xae, 0xd2, 0xbf, 0x1a, 0xd6, 0x06, 0xc0, 0xc1, 0x90, 0x3b, 0xbd,
  0xa9, 0xf6, 0xef, 0xbf, 0x00, 0x00, 0x0e, 0x00, 0x14, 0x00, 0x04, 0x00,
  0x00, 0x00, 0x08, 0x00, 0x0c, 0x00, 0x10, 0x00, 0x0e, 0x00, 0x00, 0x00,
  0x10, 0x00, 0x00, 0x00, 0x02, 0x00, 0x00, 0x00, 0x10, 0x00, 0x00, 0x00,
  0x44, 0x00, 0x00, 0x00, 0x01, 0x00, 0x00, 0x00, 0x08, 0x00, 0x00, 0x00,
  0x31, 0x00, 0x00, 0x00, 0x73, 0x65, 0x71, 0x75, 0x65, 0x6e, 0x74, 0x69,
  0x61, 0x6c, 0x2f, 0x63, 0x6f, 0x6e, 0x76, 0x32, 0x64, 0x2f, 0x42, 0x69,
  0x61, 0x73, 0x41, 0x64, 0x64, 0x2f, 0x52, 0x65, 0x61, 0x64, 0x56, 0x61,
  0x72, 0x69, 0x61, 0x62, 0x6c, 0x65, 0x4f, 0x70, 0x2f, 0x72, 0x65, 0x73,
  0x6f, 0x75, 0x72, 0x63, 0x65, 0x00, 0x00, 0x00, 0x90, 0xff, 0xff, 0xff,
  0x14, 0x00, 0x18, 0x00, 0x04, 0x00, 0x00, 0x00, 0x08, 0x00, 0x0c, 0x00,
  0x10, 0x00, 0x00, 0x00, 0x00, 0x00, 0x14, 0x00, 0x14, 0x00, 0x00, 0x00,
  0x14, 0x00, 0x00, 0x00, 0x01, 0x00, 0x00, 0x00, 0x20, 0x00, 0x00, 0x00,
  0x44, 0x00, 0x00, 0x00, 0x2c, 0x00, 0x00, 0x00, 0x04, 0x00, 0x00, 0x00,
  0x01, 0x00, 0x00, 0x00, 0x40, 0x00, 0x00, 0x00, 0x03, 0x00, 0x00, 0x00,
  0x01, 0x00, 0x00, 0x00, 0x0c, 0x00, 0x00, 0x00, 0x63, 0x6f, 0x6e, 0x76,
  0x32, 0x64, 0x5f, 0x69, 0x6e, 0x70, 0x75, 0x74, 0x00, 0x00, 0x00, 0x00,
  0x04, 0x00, 0x00, 0x00, 0xff, 0xff, 0xff, 0xff, 0x40, 0x00, 0x00, 0x00,
  0x03, 0x00, 0x00, 0x00, 0x01, 0x00, 0x00, 0x00, 0xfc, 0xff, 0xff, 0xff,
  0x04, 0x00, 0x04, 0x00, 0x04, 0x00, 0x00, 0x00// Paste the data of the char array in `src/model.cc` here
};

unsigned int model_tflite_len = 13052;// Fill the int in `src/model.cc` here